3da2a613
3c53da7c
3d44798d
3e916ac9
3e52ab99
be367f81
be652c59
3dac56e1
3df3b7f8
3e09d1ba
3e5d84b2
be251ae3
3c2455fc
bdae7d22
be9cf9ed
bde1e91f
be9d360f
3d64d144
be9d6b85
bcfa24c6
3da87715
be8c7f6f
3e0bff5a
be8b3875
bd72aa59
3de0fd65
3e736acc
3e514680
3e874162
3e8d5daf
bda6d4d0
bd4eac86
3defb2cb
3db9dbd1
bd8ffe0a
3d2f8737
3c07e790
be4ee3f1
3e96f00d
3e71fa4c
3dc6239f
be1d6fd6
be6516e4
be904842
3d6f2cd4
be5fb43b
3d90b554
3d81390d
be907f7e
be376efd
3e1f522a
bc8ef8b8
bd9089be
bccb6f04
3dd3ddd3
3e23449d
be7f543b
3e1cd2a6
3e69613b
3e34d941
3d684181
bde73056
3e387eb2
3db891ec
bd860978
3d8d3066
bd1ff160
be9c664f
bdc81455
be620006
bc2f12e0
3e2aba14
be493d32
3b2e7b73
bda9d94b
bde1a660
bd8bcf2f
be2ee9b5
3ca64c7e
be89189e
3c1502a2
3e1b36e7
3e16912d
3e83be96
be7bc07a
3e079ead
3e30b75d
3d2549e5
3cbf6f19
3d8f6538
be4e4c98
3d142d37
3d8aa395
bd4c64bd
bdaa69d4
3e82dc3c
3e553389
be65c23b
be0e4aee
be208387
be48e83d
3de917da
3e994225
3e95180d
be3977a5
3d9df43d
bd473d2f
3ccd9e07
3de11a29
3e6a41cc
3e592261
bd932309
bdf2227d
3e134249
3df816db
3e859ccf
bdfda49e
3dc2fda9
3e5df08b
be830a2c
3e520378
3e030dd8
3e171113
be8bc79c
bd8fe41a
3e75549c
3dab54ad
3e686169
