be1ab633
3e039dc3
bd895663
be0e0354
bcdde588
3e141cad
bdc0f622
3e28e23d
3e39196e
be14043d
3e215582
be1c122e
be2efe5b
3e0c2a59
3d563bf9
bdcfa50f
3d92e6cb
bd7d3bf2
bd852ebd
3d815f79
3b2c32e2
bcc5ba04
bdcc5990
3dcdacf4
3e2db58c
3ce2e122
3cd66954
3df383de
3d324a34
be174516
bde8725d
3e094a2d
bdb39558
3e111b66
bd35e6e8
be474469
bdc824dd
bda4e223
bdb5ecf9
be22cef4
be03931e
3dc826b5
3dd02e9a
bce4e0e1
be32c83f
3e18518b
3d1913d2
bd92a896
bdffaef2
bbcc5d8b
be11cc48
3dadf2dd
be4ad502
3e557e2f
3e520da5
3e104de9
bde49d01
bd88d5a7
bddb5528
bd4774d8
be1659fc
3d30e0f5
bdc500b4
3db6e299
3dc750d7
be22e857
3e3fe4ba
3db1207a
3d116cdc
3e2b530b
bdd6d78a
3ddb0a9a
bd0c9e7e
3e00d828
3d13dceb
3d11ee44
be21bdc5
bdf6eec2
3e23bc81
bdd7a359
bdad290a
3e2eda86
3d39fbb7
3e0ae8fe
bc51dcfc
3d92dd6e
3c858039
bd850ea6
3de396e1
be4aa729
bcf5c1e7
be586948
3c975fd0
3d2bb014
be1be9c6
3d7cd774
be23aaa3
3e214cdb
bd657718
bd462a3a
3e2f8b8c
3d8e8500
3db8bf3d
bd65329e
3e08e81c
3dd816ef
bc655d81
be5967bb
be424f18
be0dd599
bdfe702a
bc9eac28
3d9da8ee
3dd6edd5
be1da26e
bde0fa5b
be1cca58
be225e77
bd739244
3e38aba7
3e06efc3
be2ecffa
3df8d2df
bd1f49a6
3e059c87
3d9befff
3e3e1668
3d98a15c
3d9277d1
3e2b9eed
3dd75434
3e44cca2
3e2b488b
3d9693e1
3cb0a9e2
bdfaf89c
bddc0d6c
3d88f506
3e224f74
be16efba
bde76404
bdcecc5d
be21b4be
3e286eb9
3dafca42
3cf19187
bdca90ad
be3c9709
be05da58
be2c85af
be080384
3bff202a
3e089c82
be320fa3
bc8fcfa3
3e4f4958
be3d4252
be06b202
bd728fb8
be381c5a
be39dfaa
be0c13fc
3c8b65cc
bd406d13
be57e9f0
be26363d
bcbd7b76
3e4098f2
be63a956
3e3a9fa0
3d76159b
3e32d35a
3c10e00e
be53e131
3b1fc72f
bd9c55f4
3a2145a7
3e14809b
be030c16
bdff66cb
be23f403
3e2cc953
bdfef39f
be119674
bd4e85c6
be221b5e
3e146f25
3e3ddb84
bd0a3b5c
bc4d1da3
3da1c5de
bdf9f27d
3c43bb7b
3e18275a
3cdbd277
3d68b18f
bdd0d43c
be1941ec
3c1c5b3c
3c2c143c
bd37abae
3defcaef
3e181a90
bdb116f2
bda3ecfa
3d4b7850
3c188573
bdabee73
3d9bc961
be62fc25
bdea26a1
3c9e0594
3dc6333f
3d2fe9b1
be0b4938
bdf1aac8
bdd5080f
be011a30
be5b11fa
3c206998
3ddbd1ee
bcb3de44
3d8c2e7b
bd25d798
be54f383
3d4b9e39
3e6985d9
bd9ee935
3d1297e0
3e1d9b65
bdacfed3
be03402a
3d6be75c
3debf1ab
bddf2d9e
3cbab3dc
bd741b7a
3e34a9f7
3e69770a
3d2bb74c
bdf23920
3cbecfb5
3ccee11d
3e1235bf
3bf18c6d
3e11045e
be087e9c
bdb7ebd4
bc74b37d
be2249c7
3c3ef24d
3e655c76
be4b8c0f
3e415d41
be035dbd
be3512d4
3def7cea
be164b9d
bc889c28
3e2f38a7
bdc9ab1a
3e1ba85f
bd5a38a4
3e21192b
3e0c8307
3e40f543
3e0330b5
3e4963e7
3e3cd35f
3dc3a696
be3fc368
be346e20
3e0d4ba3
3e082fe1
be10a8a0
bdc76dcb
bdef51b9
be185cc8
3e03b2c3
3e120c05
3d663bf4
3de9a55e
3e3e7973
3e31ecf9
3e12eb93
be2f6915
3d2ac084
3e28e425
3d8fb4ae
3e066ca7
3e3d8e57
3e2dd221
3df5e3fa
be485d47
be0fc6b4
3e2e30c9
3d03c49c
bd426b3c
bd3c138c
be5c6ee1
bd5ed8b8
3dc076fa
3cd5ebe0
3e1e9b01
3e4d60e7
be159dd4
bd9fc3c2
be10fa88
3bee9a20
3daabcb6
3d614004
be236ea2
bdc3fbaa
3d93fb46
3d6801fc
3e27214b
3e25f5bb
be264193
3debbea2
3b9c4000
3e11cf65
bd8b886d
3de9aa33
be34fa7f
3da94432
bd6c2e34
3e04ac88
bd71d754
be217a47
bda166f3
3db48670
3de0136f
3e59f016
bde62436
be32da26
3d72d92e
3e5e3f2d
be39b250
bd8d6995
3e0426e3
3b353e0f
3e326135
3d68adaa
be3e0bd9
be2ee50d
bd654fc2
bd9641d9
3d017df3
bddfe3ea
be503fb7
be1b7f0e
be16b02e
be128033
3c0bd920
be0bfbfe
bc5b06d8
bc9b20dc
3d87f58f
3d453cfc
3d32275a
3e2c08f3
be375a63
3cf68268
be4551aa
3e0e81da
3de59760
3e4dd683
3d10f18c
3ca365aa
3d3b0960
bce56fbb
3e0cbe7a
3d480741
3e29d689
be00186b
bda12227
3d43f59e
bdb02bf3
be1d6558
3d56b779
be22e272
3e17d327
be0a82b8
3e3ab5e6
be1b9c11
bc3a50ec
3cc6cb76
bc3f96c6
be02a1ec
bddbfb2b
3c87e008
bd13b02b
bd05436c
3d031d53
3e55e72a
bc6e759c
3ded583f
3e4151e4
3e34596b
bdcd6546
3d9fcf0e
3e06a1d6
3dd68b03
bdf4777b
3e1f01d3
bd2e415b
bd8b4b89
3e2a4c12
bdc5435d
bce4c9ac
3d01f033
3e1f5b53
be5609b6
bda18afe
3dfaf82e
bd96ac64
3e10beb1
3d590266
bcdbbde4
be455283
3d0d8daf
bdd4f687
3e18780e
bc60e55d
3d52c97f
bd03647a
be3b813b
be3207fc
3d9ebcc2
3c6199e1
3e3d7f2f
bc921178
3e5decbb
3cb8b04c
bdc5be0c
3e541347
3cf5fb0c
bd362fc5
be5d92fe
3e1a59c9
3e1fde45
bda59f36
3d0fc9af
3d096069
3e5b6d69
3e5d6181
3d7412c9
be443ec7
3e3edbc3
be50ccf4
bdf73d85
3e30129f
3da37e16
3e0d2e6f
be276142
3c075ba0
3c7f3260
3e504da3
be3cc5cd
be4a475a
3d9a3ac6
3e5b1d09
be3e24e1
bcd721e8
3a568100
3c02e970
3d27d044
be2dd4a6
3e43c745
be3092ca
3dd370aa
bdda7722
3e40dad5
be499be4
3ba85b00
3da2238a
3cf2d060
be1bfa25
bcab36f0
be0ae704
be0d8506
be0ebcf0
3e381997
be3da46c
be2ea56a
3cc070f0
3da7be9a
3e4108a1
3da5668e
bdbd02bc
3ce5bbb0
3e400ccd
3e217d35
be3925da
3bf402e0
3dd0f982
3e428153
3ce20a50
be0b23c2
3d3c12dc
3e083961
3e1e3dc9
3e1fb3c5
bdc400cf
bc9ba068
bce45e40
bd918600
3e4f944b
3d9e0d22
bc1516a0
bd934c1a
bd1b3e58
be552d66
be10ab31
bdb2e5f1
3e23d813
be172792
3ddb9945
bdab6605
3da975bd
bd0cb3a6
bd723ba2
3da939da
3da27054
bde254f4
3e15d623
be43ca09
be0729c1
bdd042e4
3d94ad5c
be3372bf
3d355c24
3e3e170a
3d68020e
bdc7ab33
bdb75aa6
3d4f4424
be4fa8e8
be259561
3dae3dd1
3d403c2c
3e4573a6
3e4dd2c1
3d6994fc
3d986efe
3e410495
bdae4eef
3e58804b
3d806006
3e136f9f
3d93ade3
be2d8162
3e426fab
3d70a1be
bd7e67f2
ba8d052c
be471e56
3e607471
3e39706f
bdec1960
3e5857a7
bd57704a
bdb0c2a3
bd4411f5
3e0a8dc3
3d9242e6
bccbba5c
3d1d9455
be062bc6
3e513992
be55167f
be015bd4
3e0499bf
bc29c0e8
3e5c7514
3e069fa2
3e4a5fb1
3d1b87ce
3e2786e5
3d96e529
be5a74e3
bd93eaa9
3d3ff453
be154e63
bb25f062
3d9700ef
3e5c8acf
be51cd36
be098873
bbfc3dd2
be12a9c0
bd266ab0
3e1f6939
3e360aab
3cddeac3
bd5e30ac
3d83c48f
3dda5eb4
bd8c8b3a
bdcf458f
bc986e22
bdf0331b
3cbe41a9
3e299d52
bd1b8978
3d15efe5
3d19de96
be1d0148
3d8dbe68
bd72360e
3e3cb2a2
be4debf8
bdfc5090
bd087764
3e33fe8d
3e280368
3d55ec12
be2e23c5
3c7bfa9e
3bad21c0
3e1f54e0
3e532410
bd2bbeae
be58952a
bd9e85aa
3d19a6e0
be477838
3dcee05f
3d148f37
3cad3051
bc49b072
3e4994e4
bdde2e36
3e463460
bce394dd
3e076901
be43a219
3d973e3f
bdfd24ee
3e470641
be49712f
bb48881c
3e0ee7c2
bdfa1f57
3c4987c0
3d106776
be3f729f
3ddd8b7d
bda1d30b
be0257b1
3e0b5f32
3d5bcb3f
3dd3c65a
be49c279
bbe25565
3d286324
be3d86bc
3e57c9c1
3e37fea8
3ddb0935
3e13680e
bdc7f693
3df5ca89
3d81fecd
3e28f006
3cdcd88e
3da1673a
be4d58a7
be02b534
bcd6a99d
bd3386d9
3e04e4bd
be354398
3c9f0ac6
3e407b72
bc85e500
bdbd48e4
3e13a665
3d98314f
bd53ae8e
3d8eccdd
bdb37fb1
3e3e02dd
bd612e3a
bd89631e
be4ac6a4
be1066eb
be29b05c
be503542
bd975e08
3de1a2c5
bbece269
3e17cccc
bdb4722c
3dd49093
be55e2a0
be4c8d79
3acd06cb
be4151f9
bc15fed5
bd666a30
3dbc4b3a
3dbb7494
3d96dfd4
bd1c26a2
be3fca24
bc8751f6
bccbf4a3
3e34135b
bdf9b1bd
bbb9e99b
3ce9fdc9
be3326c4
3dd3e17a
bd91973a
3e4e27e0
3e20d0f5
be5b96ca
3c55a05a
3de41185
3c49c735
3d8479ba
be4c58ce
3cc970bb
bd8d4c33
be363ace
bd7f0f25
3c68000d
3e4c216a
3dffd471
bdb5c612
3d55ab36
bddae278
3d8dc2c2
3bc09eb2
bd8a0258
3de3676e
3e357705
bd75c0a2
bddf3c60
3e1b8729
bceebdd3
b9d9180c
bd97aba4
be14cf32
3deea37c
3e5e6330
be4e7427
3e17c227
bdf8460a
be2bf2eb
bd2c06a4
3cd34ac9
bdb17365
3e04baa1
bd81662c
3e2e8c02
3e0a79c4
be5595a5
3e3c92ea
bcb65943
3c0d755c
3d0ef7fd
bd5fde4b
be2340ae
3e28bb80
be33c031
3df8d31a
3da51f5a
3d88c115
3da7df9d
bd8daa86
be1c5a9c
3d820278
bdfec924
bd3b5444
bc873b6e
bd8d2df0
bc883930
3e2dd31f
bd86b792
3e25b650
be374625
3e1367b9
bd7e52be
3e32a6c4
3dfd46dc
3df34838
3d383509
3cafe9a4
be214f2a
3da839c6
be47b916
bdfc97a0
3d8cfa5a
bd0cd847
bdb0a7c4
3c5d214b
3e5c83a3
3cb7a850
be34ae54
3e284287
bd97d540
bc879428
bd53e1c9
3e36acf5
3e295390
3e6628d0
be4b4498
3e1e9382
be46f33d
bd5bc1f7
3d63eac5
3da2b1da
be498569
bc541320
be18beea
bda11b78
bd90277e
bd9ea053
bdcd1339
3db4816a
bd28bdd4
3de52279
bdf767b9
bde86f62
3e0cd059
3c08c35c
bdf2b4f7
bdf7f7e1
be1780f8
3d9766ad
bc1bfffe
3e468c1a
be446fb8
3e448359
be227d45
3da659b6
3de8c76b
3dd3f23a
3e2e6fec
3d2a5c2a
3e373677
bdf4cfd5
3c40b5d0
3d6e0298
bdd19070
3cf08dc3
bc46bc04
bdfaac8d
be2acd28
3e546432
bb555425
3bc52772
3e2bfef4
3e56aede
3dee8223
3e4b2e97
bdff18c4
bda632c5
be0902c2
be2bd1c3
be4b9bab
bd34a770
bd45cdd0
3df051f0
3db4ac5a
bd484dc6
bd6d7bed
bd8ac419
3dbaf8e0
3d5f7c36
bcc41f89
3c77704d
3da22353
bddaf9d6
3e4a8e1a
3e1bf924
3dad54ea
3e16affd
3e1fb47b
be085e2c
3c6d5e73
3e5826c6
bcd95759
be29f9c7
bdf6002c
3d2a16ec
3d91bb1e
3e36491b
bd0401f8
3e500389
3dbc66f6
bddf1438
3adf755d
3c57a204
bd1edf14
bde848b0
3dcfef8b
3db18d21
3dd2e04a
be0a2d74
3dd11e4a
3e29bde3
bd8f65a1
3d005a5c
3cc05761
be1a353d
bccd50c6
bdf29aa0
3d15eb96
bc4e5b87
3df6eec8
be248df9
3e4d1533
3e33fa4f
3d9a31b1
bd8e2ac9
bd990458
be00b4d1
3def8e0a
be011788
3dd2130b
bcef8d5e
be113a10
3e443d12
bd53d578
be5a57cf
3e57604a
3dbbc2d2
bddc9599
bddc7bb3
3e0dba85
3d76ae05
bb9f04b3
bcd4216b
3e1bfb94
3d31bddf
bd250a41
3e34a18b
3cc5f2c6
3e29dbb6
3db11534
be1318a6
be424cfe
3deb1e11
bdbc8fa0
3d1acfd2
3e0567e8
be0372e6
3e5f7c53
3e0694ce
3e11cfda
3d43faf5
bd565cc3
3d6320d4
bdb5c5e6
be1d31f4
bd9c3116
be25aecf
bd4dad45
3dd676b0
be1b0ec1
3e46229d
3b3ba900
3d8cbcba
3d858ec7
3de00b76
3e1bbd5e
3e373639
3da1e298
be0dfd2d
3c28cf33
bde1b40c
3dbe88c5
be17b544
bc8ace22
3df64def
be3b1a0a
bde42279
3e3ecefa
bd94ceed
3d5727c1
bdbcb0d1
3e37a6e4
3e1c8f59
bcae4c54
3c06b25f
3e3b3007
be0ab863
3df14c70
3e2c1dbd
bd832326
bde383b4
3e1d2d74
be4bb3d8
bda35a69
be254581
bd495278
bd11c33f
be426d39
3e4ecc9c
bce592bc
be352160
bd920bea
3e265daf
3d0de91b
3e358809
be4a52dc
be1ba92c
3e08128c
bdfe21c2
3defe9cd
3cef7316
3d88028d
be5e6524
3da411d2
3cc01458
3d755880
3d8e2513
3c138610
3d3ff700
3e079367
bd9fae93
be290055
3de27925
3e07ada0
3e07ace5
be37183e
bd5c70f8
be06860e
3e057c25
3b625c40
3e2fde35
3da70c81
be4ec364
be28eb88
be5ae65a
3e506b60
3dc5ff0a
bd023050
3cb06de2
bd68b4d9
bda8275a
3dc0271f
3e3b6059
3e0cd925
be2d6e3d
bdb76c92
3e4c83f5
be3e1458
3dc2e636
3ce01f78
bdb3d663
3d3c7854
bd61ccec
3e271111
bd175ce8
3c6c77f9
3e1a714f
be3c2af5
3c56b661
3d692655
bd3d9ccc
3e2430cd
3e206baf
3e308bbb
bdede5bf
3e51d34a
be422f93
3c0b315e
3e2a5171
3e25dd25
3dad0c82
3e352d01
3d0ee9eb
bd94dbdb
bdba0ef6
3df1667e
3ca58249
be5a6fae
be00d91f
3d8007cb
3dca75be
be236f4c
3e274230
3d08fec9
3e088737
be4a112c
3daf6ba7
3e2ff472
bdf270bf
3d579cd4
3c2d6230
3e565787
3e40756f
bd4bce57
be53645f
3d81b60f
bda929b6
bde8ca67
3d9b3732
3dae1cde
bcefefe0
be40b64d
3df09db0
be354d99
bdc2df4d
be33a6c8
be1faad0
3e16ce56
be2cc5b4
3e28edde
bd192a10
3ab2cafd
3db0acce
3cbd5d30
3b388fdb
be5199d6
bd2595f0
bbed9f32
3db5d57d
3de134e2
3cde19aa
3cb6095d
be00278f
3c3c1ad8
3d6a337c
3e59c8f0
3db2491a
3e1cfb43
be264687
be033365
bc6d3819
3d995b17
be151934
be21ccca
3daf62b2
bd50987c
bd5ea8bf
3e466369
3e4c08f8
3e343ddb
be102265
bc5b1d74
3e1470d6
3e3dde76
3da19f5b
bd6020d4
bce76044
3dfa72b6
3dde7399
be35f610
3e5cad86
bdb72728
3c89d9df
be5185d3
be374ad5
be292a9d
bd3e86e3
bd8d0ade
bc6c8521
3e625488
3dd10a0a
be4f6854
bd978931
3c2e9540
3e3d72e0
bddf7342
bd232740
bc8f7533
bdd90e5f
bdb46590
be2a7b4d
3c51d4b1
3dfac769
bc87c0a3
bdda3b5f
bd52c772
be496901
bdc8ac69
3e454182
3d00348a
be0e6df8
3dfb986b
3e2e694e
3e63b033
bd697708
3da21b43
3dcb9f94
3e55849f
bcd95491
be576025
3e0bf247
3d637784
3e07d53b
be5fc160
be439d01
3e1853be
be0afcb8
bd4fb1e0
bd2588f9
3e00e0da
bdd8d099
3e05b566
3e51c8b5
3e05ad27
3d9f8490
bc24ea52
bdacd6c0
be16996d
bd2089e8
3e365841
3e3379ed
3dcaaf49
bde04fa4
3d311601
3dde2551
3d8e0acf
bd439686
3e28bb7b
be4033b6
be58d5cf
3d5fa6b1
bdb95cee
3d732ab1
3dd5bcd2
bd89a6ba
bdbcaa89
3d6d4ee6
bc8fd8c2
bdba216c
3e2cd7c5
3e45a8d3
3b9d7af7
3d855911
3c4ca77e
bdb4185e
3e36ea7a
3e0583aa
be0f7590
bd871878
3e203bdb
3dd69ca4
3e5a9877
be179d06
be208733
be5994ca
3c99b8c3
bd2492fa
bdb57276
3e117a57
bd00dc30
3e57cb5c
3db254bf
3d1d1dcc
3e15287d
3d57c382
3e237265
bda773ac
3e478f29
bb49c076
3dc77b06
3d286c6c
bdb2aa86
bd9b5606
bd12b9a6
be5072e4
3decf6b7
3de290ed
bd28b716
3cfe75d5
bca909bd
bdd72c2b
3e39f2fa
3d14faa4
3de11f66
3df81870
3d586628
bdd6f0d0
3da4fd8b
be53a1ec
3e33073b
3e376023
be2efed8
3d5f7a04
3c207ac0
bdb19041
3cda8a3e
3e1d82af
bd713239
3ce5a7d9
3d989c1e
3e2f5a5e
bd7710c0
3cbcc297
3e637458
bd249693
bbf50598
3e632f00
bbec83f6
3e2176f9
3e1ffe72
3d554b58
3e3f0b52
bca181bc
bc9a1d0e
3d83834e
be170b46
be47e1d0
bd3744fc
bde595ca
be035ecc
3dbbab42
be380d31
3cd54189
3e598a39
3e198cef
3e32f200
be4b0be8
be41519d
3d9480ec
bcd7a8f5
3e308b39
3df61f5d
3e2ca831
3e07e25d
3d37701c
bd1b38b4
bdacc21b
bc5a8712
bddc869a
bdd89e9d
3e0f6f2b
3e29cc38
3d80871d
bd89f47c
3df75053
bdb5321f
3dee4b71
3d85b37e
3e11d740
be2dc3e4
be374615
be2b25b2
3d90abd4
be3a4587
bda26f4d
3e3e96d5
3e1ed742
bdb1c0e6
bd9c3725
be50e879
be15a566
bdc31125
3e1e30f0
bda3ffe9
3e578828
be2de0df
3c888bae
be2fe536
3d6f96ac
bd42833c
3dfe78db
3e062e6f
3e287201
bdae52e1
3e29c0f0
3e47cb2a
3de7bd34
bdb60a7e
3d6c3a7f
3e31a16d
bdf996b9
3e33c401
be208eb4
be3e2214
3e1a96da
be39da32
3da4d37d
be130c6f
3d9bcea5
3c414c6e
3decdef3
be274872
be397aae
be3125e9
be2792e1
3dbd75b4
bcd2fa45
3d85c417
3df1cb52
bdbf43f6
bd9dce0e
3d33c1f0
3de0b96d
3deb89aa
3dbd006d
be44925b
3e2791cc
bd963f16
3c7063ce
3dbb76c5
bd100db5
3e232e8f
3d045a00
3e3e9e79
bddb04c6
be3c7dd1
be3efd2f
bd00ba6b
bcd794e9
bdf1956b
be093cad
be52cac1
3c1361e5
3e283fe2
3e57806c
bd8aaa4e
bcaab6ea
bbbdb300
bd9b1b9d
3bda8bcc
be07b532
bd469395
bd4d2e82
3d5fe51c
3d6ea9f1
be1a3449
bda2b271
be4f7cbb
3d478d44
bd1e5bbb
3d05a9f0
3e4d780f
3e1f660e
bdb2f086
be5f11cf
be0d6354
be3c5ae6
3d729b71
be07bcae
3e462e10
bdc7d927
bac6e124
3d542603
3d55140f
3e34da36
3dd414f9
3db3f7e0
3cc588ed
be2d47ba
3e140cbc
3e4a6840
3dd67162
3e57a235
3e034edd
bd9aa7ec
bc6633d3
3df38599
3df1d724
3dec7717
3e091abf
3e00a3f3
3e30bad2
3dfbf8bd
be601d66
be32d58d
3bcb6d20
3e4e4c60
3e27113a
bda8bb13
bd88af6b
3e0b3ab2
bdeb58fa
bd5c5700
3d2fe994
3e00b902
3e19041d
3e52730d
bdff48ab
be3f6d71
3d0e18be
3da1f8d8
3d881ca4
be3591f0
bd9773d8
3cd1a352
be3721be
bdf65542
3c79b05c
bcdfc1f8
be1abe12
3e153f85
3d53683d
3da41aae
3e47af83
3dceef86
3d17d859
be25e2c5
3d57f474
3e4c5e2b
3e1cc90a
3d46319c
3e270f02
bd134544
3d913868
3e223884
bdfcc245
3e07531f
3df59390
3de90ae6
bda868ac
3ca422fb
be22b675
be01641c
3e05376a
3d2e309d
3e4b6bf1
bdd941bf
bde40aae
be42d87b
be5513ec
3e550888
3dc1c200
3d06f017
3cf1a86e
3e18d5e2
be3b795c
3cd1fe9f
be0a80a7
3e18e19e
be268caa
bd12f7c7
be24a66b
bd028937
3dd7eaf9
3e58c7d6
3dfe33e9
3d93ff76
3e0cc289
3c7c8796
3df21c32
3d074312
3de193bf
bdf250a2
bcbc1bb6
3e3d5e2d
bdf7b184
3de418ad
3cc0c146
3e24db15
3da2248d
399ea6cb
3e0f5fcb
bbcc8540
3d9ac27e
3d0156c6
bc72ac2c
bd8cdfca
3e033eda
3d12d51e
bdf6102e
be0c644e
be17f5b2
3e575292
be1b6800
bc75e120
3ddeef58
bda2d04a
3d955d99
3da651d7
3e1622af
be064bd0
3e2d2e33
3db33f20
3d200db8
bdacee76
3e369897
3df3d1bd
be0e5059
3dcf4798
bc1497db
3d808c0a
be1da4ab
bda1c6ed
3e489de4
be0b5c33
3dc75461
bdf15ab8
bd8ea3ed
3c2dd9d2
3e086282
3df25c29
bcd4d601
3e34c6a2
bdeba909
bddd8560
be355c83
3b655f4c
3c5decbf
bdca3d9d
3d1411fd
3d0454d9
be4dacb1
3cc6cc18
bdfc3284
3e13293e
be50e069
be56eb25
bda1d3b6
bdd3a6ed
3db14a92
bdf224e8
3d032f10
bd7763a8
bd4b79ce
bd6d238d
bdf5a506
be51ee00
3e24412f
be01f0c0
3e11aeca
bd7f93a3
be2ae74f
3cd84310
be4f9b36
be21c4cb
be04cb50
3dfc644b
bda2ff44
3ca8cc30
bd2e7157
be1d51a5
bdd67d93
bd88baf4
bdc24aa7
bdabc8dd
bc8444ce
bd87c8e3
be4adc10
3c8988bc
3e094cc5
3e2c8763
bdafee98
3de3f15e
3da5925a
bd3cae30
be111046
3d56b8d1
bdea0977
3e371bd2
bca590f3
3e23eaf4
3d092aca
3c8f1b89
3e4881d8
3e24a1f1
be3751f1
3d34f31e
be2ed29f
3cadc417
3e1f441d
3e217445
3e4f3127
be1d763f
be2ae24a
bd9513e7
3d5c2064
3c983438
bd6b4c8a
bd9f8cd5
bb4558bf
be33a71a
bc94deec
be462ee1
be2f636d
3dbce326
bd3f59df
bd0dc05a
bd89d2a0
3e01d1c4
3c1cc566
3dcd1f28
3c012885
3e5de289
3d481e8a
3d109501
bd20c873
be01287e
be18313d
bd7e345b
bd96c9d6
3e517ac5
be228bdb
3e32d0ab
bdd880e6
3b921cc7
be10c91e
be099b32
3e2d8615
3dce541f
bd814585
3da53ba7
bb8eea1a
3d93c4fa
3cbd8ea0
bbe9a6ce
3c9d7662
3d3f4119
3def8167
be17e0c7
3d158797
bd95f7f9
be55e199
3db17086
bd8f0593
bc03e865
3da46a80
3e4feae8
be1debdc
bc972abc
3deac285
3dd7552d
bc613d40
3e02798a
be1d5184
3e4ca2a6
3d61e10c
bcef6998
bda5fd8a
be2e47bf
be0a07ad
3e4335bd
bc27ed10
3dce5482
be507d67
bda9bcd2
3da870ea
3ba0cb80
3d56372c
be3b040c
3d737c8c
be428e22
3e421fdd
3d60874c
3e0c92cf
bd97b3a2
3e453abd
3d9c27ca
bd4d7eec
3df560be
3e4d97eb
bc25dc90
bd109ea4
bdc72095
be25d43e
bd025000
bd8c3e92
be3d5b95
bdd23b48
3e3b3755
be07cdfe
3d2bfcac
3ce9ea88
be421587
baca8700
bcba85d0
3d7cd09c
3e1e8a75
bcb5c850
bd6022bc
bd4b01f8
be51dd6d
bdde94ca
bde29699
bd430348
3e2868ef
3d98f4a2
be046d52
3e098b39
3d14bbf4
3df11292
3d138f0c
bd082800
3dd43606
be218914
3e23c979
bd4a534c
3d5ab454
3d20dc2c
be0f40c8
3e05ae8b
be05bb66
be28e40b
3d8df98f
be4d513c
bdab7688
be2a984e
3d9e6237
3d171749
3dec1bac
3c5cd5af
3e4ecf4f
be12b09e
be21eae6
bd8747f1
be06d78d
be160b83
be2877ed
3e4dbda8
3de678ba
3d18584d
bd340dc0
3d9b8a48
3df1ad02
3dfc4b78
3de84922
3e006c4a
3cae3eb5
bd11d44c
be037ee8
3e04b43b
bd2ad264
3dd31ab5
bdf977df
3dbd6ab0
bd75bca8
bd670949
be344ceb
3e083fae
be47df40
bd996840
3e46e60e
3de6827c
be1dbd76
3b87437d
3e5be3e7
3e323fe6
be2fc210
be3030b9
3d924b41
3e238753
bd332e9f
bded274d
3e4e05b0
3e2b5711
bd8c5e14
be4958d3
3e2c9a84
3d651539
3e4a4cba
bdc36f5f
bdf060ce
bd988d83
3e319137
bda24630
be3c8004
bdc39141
3e57d424
bdde475d
be3d7d50
3dbf2ca7
3e213614
3cf3da34
bd2423b9
3e517c87
bda173fe
bdd9d6a2
39d51d9f
bcfc2184
3e4b1463
3d6e1ef8
3e5de6eb
3d8e3712
bd26c1e6
be50c93a
3e2d2543
3dde8bad
be1cf437
bdc13629
3d8976d8
be516619
bd8ae708
3dbcd1be
3d0c91aa
3cb2bfa8
be0738a5
bc82752a
be3a2278
3e1c7574
3d93ad6f
be39ce62
bdccc368
bc165630
3d790a68
bdb8a279
3e4f93ac
bdc13b96
3dbba7ce
3daf1aa5
3bc4a46d
be23dd24
bd80cfc2
bd138157
bc75da97
bd0409c9
bdae60e1
3e5c394f
bd3c4736
3cddc9d0
bc9da8d3
bd17fd39
3e005771
be1561c6
bc28975b
3e35facb
bda22501
3d50a2df
3e5ecca2
be17bc5d
3e407a5c
be32f251
3e5dfee9
be49caba
bb964cbf
3d0c6634
be4e0fd4
bd1cfc8e
3cb650f3
3dc6c0da
bda18b48
3d2d33c9
be0706ae
3e3bbabd
3df21870
3e429806
bce86327
bd537a32
be28dc03
be64a203
bdf36ee4
be5bc4c5
3cf8398f
3e3307f9
3e36590d
3d5f7039
be4d318a
3d5cfd7c
bd9c896d
3e341d9f
bdcb48e6
bd29478b
bce4413e
3dbc7357
bdf697fd
bba788da
3daaea05
3cfc15ae
be128d40
3e5a6657
bdac8a97
3c23849d
be596dab
3e51d1f3
3e47dde9
3becb904
bdd37eb7
be56d558
3dcd2361
be03159f
3d968a2f
3e20a152
bbceabdd
3d96d688
3dbc8ef7
be379372
3c980cc4
be33f1c2
3d59300b
3e2c389b
be077bc7
3e138758
bcdf2637
3e3f1ff5
be0d9e1e
3e241bfb
3de2b988
bd86eef0
be4a87f0
bc963cc8
3d200e19
bdd4b589
3e24e89d
3e4939d9
bcb87d2d
bdc357cb
3d96403f
3d94a868
3e24d1bb
3e0fc1b9
3e23964a
3e615138
bbb312ac
be169773
bdf0a1b0
3e64cb5c
3e155f1f
be41cb0d
bdaf5df0
3e409b03
be53904b
3dd7c796
3e4863e1
bd83953f
be1cf5ca
be36b4b2
bde26221
3e4cfa1a
3e2dfb89
bde7a706
be4dab6f
3e0b2705
be28b119
be441606
bca8c73f
3e19cdc6
3dda94f8
be04d8bd
bda8b799
3dfa1959
3c4c0480
be3c156a
be1e6fe2
bdd50a8e
be50ef74
bd0c76d3
be23a117
3d40d18c
3e25eac7
3deba006
be102cfc
bc6f9abe
bdc668a5
be33ed44
3df81319
3de900d1
be0e5d92
be381098
baa157f3
3dec78f4
be3e1c9d
be3f7db5
be424669
3d72fb8e
be1c3302
3e4962ab
3d781ea9
3dd28b31
3e2f96df
bd4f4108
3d8d9058
3d309d05
3c52e22c
be0ada2c
3d988099
3d74b6d7
bdf719b7
3c07e4b3
3d4a93c9
be4a9a88
3e38d033
bdf2e587
3e2cb272
be3cc8af
be543986
be229a0a
bd4403f7
be2d0a5f
bdcecf00
be1d20e2
bdcde50c
be48d35a
3e0c003d
3e3222a6
3e08718f
be4ccb3b
3d3293b1
3e2407a3
3ce6719e
bd5e928b
bdbaf2a2
3d0f2b8e
be60c686
3e47ffdd
be1d119a
bba92324
bdda4c0b
be281a70
bdb41ced
3d9017e4
3d95829d
bdbafeb6
3c968f3b
bdb51363
bda6eadb
bd840c68
3de8b508
3cae53b0
3c9f541e
3bdb3092
be5db48c
be19ad27
bd7de83c
3e528cf1
3d5e1b30
bd6b2ca0
3e22e1de
be54b0ab
be2e53f8
3d389dbf
be2d69cb
3db5ba35
be01429c
be063d04
3e374a57
3e34cac0
3d55ff8a
3e2f9a54
bdf3a8c7
3d6e4da7
3d1bb0de
3e524816
3e59f563
bd229584
bdada16e
3c5fdeb6
3dbb7cef
bcd15c3a
bbf59a95
be01b8b4
3c86b9cf
3e0fad4a
3d178edc
bc824451
3d469f21
3e041436
bc18c4e3
be4dc46c
bd2ef78f
3d9a4c46
be0c31eb
bd261f72
be1eea39
be654209
3e165cc4
bdfd8c4d
3e2ae2f7
be423ea7
be365285
be34aa33
bde08b09
bce21a73
be132889
3d085e4c
3e468092
3e1d8a74
3d5aacae
be1926d6
be3196aa
be2c3ef9
3e15b22e
3ca08d58
bcd84ccd
bd4ccbbf
bce30ccd
3e1b8227
bddd300b
be5429d6
bdf66c40
3e4d9f33
be4e6327
3e1d554b
3d8d7d63
bdce416d
3de55a62
bdb856c6
bd20b199
3e499b6c
bdcb0cc0
3dbcee00
3d3efa16
3d9802a3
3deeb64e
be644bc2
bd7a98c4
bd187ec2
bd1edaf8
bd925aee
3e46615a
bdc2abcd
be17f916
be4172a8
be5d68a3
bddc85f3
be2b4998
bd543a3d
be172dac
3dd7e929
be47942d
3c9f04ff
be12443f
bd863ddc
be13cc35
bd3f435e
bda597ca
3e1ed236
3e5aa860
3e5a9e91
3dc026ad
3e3fa968
bbc774b0
bd8103b4
bd723cc8
be2ec946
bd67dc36
bccb822c
be5b3739
3cf54057
be0dc576
3e1050ca
bdd6fd77
be58a0a4
bd2592dd
bcc7c9a0
bdb8f57c
be34aaa4
bd502f62
3e2a7cbc
3e4a92bb
bdfacb6f
3ccd86af
3e04378f
3ddf0f33
3e305207
3df8ca05
be4a28b4
3e41838c
bcae3c6e
3e519798
bde53deb
3c9664c8
3cb2148d
bdc10d3e
3e299efa
bdd21e82
be1d6562
3db761bb
3def4c85
3e20ccc7
be388b2e
3d17c830
bdf5103a
bc69722c
3da5e8da
bd847f35
3e1723f6
bc95b681
3e5680b9
bd30267f
3e0660ed
be4f4bce
3e334475
bdfbc0f3
3ae22016
3de49acc
bc61f8c3
bd6d9b51
3e3ca14f
be0c1e3b
bd5508ca
bd809a7d
bdebbfdc
bc706a50
3dce3b75
3e37c07f
be217f4a
3e3922b3
3dfb69d5
bd54484e
bc674cdb
bdbbfd52
be051ca4
3e0d65d1
3e25315e
bd16cfc7
3afae397
be3169eb
bd368832
bd9551bc
be0950a9
3c26c0be
be0afde3
be2adab7
be1fa05e
be5386e7
be4bf18c
be42505b
3c116890
3e1cdc16
3e2a0253
bdb22ea0
3e5c8b62
bddd7105
bc8d6f8e
be269ba8
3ddc74c2
be3f6448
3e0f85a0
bd6d1a37
3de4fc96
bc8ccbaf
b9db7eb5
be05a67e
bd8fc17f
3e045e16
bcff6bac
be003544
3e500784
bdf97895
3e39ba53
be592cda
bd958cb6
3e31d2ce
3d851ee2
3e5bdce3
be444543
3d83c1ae
bdb55259
3de65ef2
bd793fc8
3e56c777
bdbbb808
bdfa341a
3e4fffe4
bcba9786
3cf6210c
3e1f55c4
3e2653ce
be27e6b5
3e1fc5f4
3e56eb3b
3e5a9786
be2afdc5
3def07e6
bda49eb3
3d798d7e
bde6fa73
3e3d0bb3
3e015a66
bde127d6
bc7baa3b
3dd7b64e
bd746991
be51c751
3e131ea6
be4f19df
bde02436
be24347e
3d1ff025
3d714903
be126c61
3e079d47
bd08eed4
bc859e75
bdfeea5f
3e4b1ea1
3d987f00
be46f7f0
bd5506e4
3e28b65d
be309645
bc3df31c
3dbf5765
ba692238
3c0e6ea5
3c75e7c5
3d9f935d
3dc3c170
3d9d851c
bdcd3ca7
bd082a39
3e5e971f
3c475e99
3e4dcba3
be230930
be54e076
3da9e38d
be4b89d9
be05e360
3e011908
bc19fd34
bb4f9788
3df99343
bda3482c
bc9e5a05
bdbee3f1
bcdbec92
3d3c9360
bd3b74dd
be2c9138
bbc6fa9f
bcf5b0ef
3e0b9f91
3dfa72d5
be349f1c
3cf9aa8f
3da6356d
bd5f081e
3d94fbc1
3dfcb129
3d8771af
bdbf1090
be0f9006
bbf7c120
3dd44ee2
3c6a71e7
bb52b06c
bd9a6d70
3be3f38e
bd8fdec5
bd31e7f0
be274eb8
be023bad
3cbdeec0
be13dcae
bdd56010
bd804be8
3e279106
bde7362e
3da7d836
3ca15202
3da5af87
3a85ca9e
3d82bc50
3e4762a3
3c91b4a6
bdb1ad05
be48806c
3dca6ec5
3c6c8f9f
be1331ac
3d3257a5
3b19a1d7
be560ecf
bd4190ab
3db21c2f
bdc208cd
be001aa1
bcf490dc
bd634500
3e43a0df
3e190e99
3e5cc5d1
bdccf01d
bba608a0
3e506056
3e4770af
3e08fee3
bbbd8efb
be56b9f5
be224aaf
be487ba4
3e140283
be2daf5d
3a260362
be359521
be1684b6
3e1dc580
be2c96a7
3d4f66d4
be4c3a0b
be41b470
bdf27c36
3e3a692e
3c35f1eb
be2246a4
3e00242f
bd166a0c
be438004
3e5b8851
be0b7510
bdf33ecc
bdb408ea
3db2e4de
bca3264d
3df7dc31
bdd2e204
bc1af247
bdad2e5a
be14dcc8
3e5be88e
bde46620
3d1e6f33
3d4554f9
be06c14d
3e2f1110
be4b0b93
be2cb849
3d599697
be244c24
bdd9378d
3e50cbfd
3d0d8973
bd0fe7ea
3dc53f2b
be2dde96
3d0e5d46
3e148d05
3a41e507
bdca7be3
be38b1b3
3d9cb31f
3d9a32b9
3d2edb74
be3d4a81
bdaa24c6
be5483d6
3c0469d1
3ce17512
bda66d79
3cb59b0d
bdf2c3e3
bddf7892
3d8dff85
bca42fb7
bbb5e211
bb8ac890
3e0547f9
3c46a41b
bde00511
be19bf8f
bba8eb44
3d78d1cc
3e3c7fc7
be4dfbcf
bdbeebd4
3d7e4066
bcb627df
3d622b3a
bc6717e3
be1c9ca0
bd20e488
3e028989
3d2a15d9
be27459d
bc6c39b0
be578876
bd8e06ed
3e052f67
3dc4394d
be027b5f
3db51abf
3c9c8874
bdfc3f66
bde7068e
3df963fa
3e1c4eb2
3dd2f46f
3e03f55d
3e0d2c59
be1287a4
be2d4ab0
3d1e1637
3e51963a
bdb0372a
3d526b11
be3797c3
be46b808
3d2dfe19
be2981bb
3e0da4f5
bdf3eedf
bda4dc72
3e3870d5
bdc2b8a2
be2ea3ca
3dffde19
bd00e200
3dd22fa9
be1c7e79
3deed2be
bd34c9cc
be400447
3e416bd5
3cdbe31a
3e5d5f88
3e45b4ab
be5d2ef7
3d85ed7a
3d8de513
3d1a237b
bbcb7ead
3deb02a3
3e5429a2
be4153c4
3dbb19f9
bd2ac33c
3e3cd6b4
3d2733dd
3e176f5e
3e39b947
3d2ac24d
be184c46
be299bb6
3d8f4d9a
3dd21562
bbf2659c
3d3b825e
3dc2a1c1
be2d5ed7
bcacc9db
3de898f9
3d509cbf
bd069982
bd5b185b
3e3a5754
be2bb29b
bcad2fd8
bdb48a2e
3e45e5d0
bdca4e02
3dbe704c
bdbc1951
3ca8a19d
bda187d3
bb979d2a
3c87775b
3e3811d3
3d895f56
bbd9f1ad
bd870211
3de258f6
b69d7ef1
3e45cf0d
be37c380
3e11fe39
bc6d1706
be58f956
bdd159a2
bdc0a2bb
bdba88ad
3e5737c3
3e02b5c6
bd84f7c2
bd15a2a0
3d6a4cb4
be1a0534
bded2fdb
3d88b0f9
be240f20
3daee47f
3df766c8
3cc2f6ff
bdf94dfc
bda15719
be544efa
be0602c6
be4cb86a
3e35634a
be1307fd
3dd4b3de
be06616e
3d623047
be434046
3e1881bb
be4c6464
be3cdf6e
bd98253e
be227d1f
be2afc9e
bdedae4c
3e12388e
bdbbed51
3da63b92
3e24d91f
3de96b8a
3e2ce4c6
3de5fd5c
bd1c2924
3e3196d3
3d6a87da
3e092bfd
3e5b117b
39db0c00
be1441ee
3d3a2553
bddacec1
3cae209b
bdb697e2
3e1eaa0d
3e20e577
bd098eb6
3dfddadf
b941325a
3b5049ef
3e2368db
3e15431e
3df65acf
be4011d6
3df4a022
bdbd8dab
3e46d836
3db6e6af
3dac01dd
be35d174
bdad6b24
3dc9ffad
bdfa7546
be373c9e
3d3b805d
bba3fe3a
3e066d6a
be338795
3dfd653e
3d92a4ce
3df680c7
bc76cf10
3e4bf89d
bcec406b
3dc45075
3dd128dc
be5c8e6e
3dd2c1fa
3ddfa215
bd7822f8
be52e823
3e091ffe
3e15613b
3c183484
3d900830
3d138d73
3de67803
3e565ef9
3ca2912a
bd978250
3e41977d
3e5222c1
be2cf5b6
be4be982
3e58f998
3e5905b6
3e67b7cc
be3dd36b
3e616955
3e23c9d5
3e066df1
be551254
3d9b34ef
be193085
3db657b6
be4ce3b8
bdab3215
bb37a669
3de55ec0
3db6ee73
bdf6e255
bdcdccf2
3c957e30
3cf4ca6f
3d59e765
bd4fdfdc
bd7d9c79
3a3b4e92
3e363678
bdf78d50
3e140fd4
3c09ac6a
bdd4dbba
3de4961c
3e000cbd
3dcf2359
3e21f1aa
bdf98a11
be57017d
bde00cdd
be305cd9
bcbc17c1
be35770a
3dcbba1b
3d95abd5
be3fb478
3e311e6e
3d12f2d3
be11e3c1
3c9c382d
3e55908b
be28417c
be178ff7
bca180b0
bdc12675
be496132
be4e6a69
be3ceb80
3ca5b212
3b80e8a4
3d4fce6d
be2ffa5c
3e507ff4
bd81cb4d
bdd45c8c
3b4608af
be01d03c
3e5dbd5f
be003f42
bc30d0b0
3dfd46fc
3e543aa6
bdbacc9d
be5b3471
3d78e354
3e0f8199
3dfa626d
be53c035
bd46f916
bda02591
3bec2cb7
bdb3ab3b
be54f4b2
3dfaec44
3db363f9
3e377716
be50fbfa
be0cb826
bc8d4ef4
3a06f175
bd5f16f6
3e5d761b
bc41150e
3de03157
3e1e4797
3d06b5f5
3dfd10b3
3e34bf2e
be176688
bd88ac98
3e3fedca
3e267d39
bdc26c16
3e165a0b
be358ecc
3e43abbe
be48b849
3d35c3d1
be427b9b
be164858
be4ea9c2
3e53a1d9
be32645c
3e3dfb6d
be06bd54
be6235ff
3e0865ee
3e404e17
bda0b4a8
3e428dc5
3d43e7dd
3d853d71
39de3446
3e34363f
bd3c96e9
3d5e2e7e
3db7961a
3da7ca53
be3a3951
be31ed17
bd923f48
3dce9d4c
3c32c7f0
3c5e5e4e
bdde585b
be079d25
bd1389f7
bdccbd20
3e1487bd
3c103e66
3ddbaa1a
3de46275
3d7c14d7
3e063a1b
be462c4e
3e1a1c1c
bdd4da24
be0b54e9
3df29333
3db74005
bdbfca92
be14bd52
be13ada0
3b7a0596
3d98582d
be27706e
3cfc2ed3
be30921e
3e2e1a30
3e5121bd
be3bfd1c
bc99a4a8
3da6cb62
bd796abd
bde55414
be436f24
be21b50c
3c68ba11
be43bd61
be3e96c1
be1abb30
3e588382
3e5a7ed9
3e17985e
3e4c4c55
3e114495
bdcf70ca
3e1e8f11
3b470460
3c97ad50
3ce2ccad
bdaa50ba
be02b485
3e4d1ccc
3ccd87be
3c0cec9b
bc473106
3dc39374
bdd71d73
be4d60bf
be223778
be3840ee
bcaa320e
3c5f6ae6
3e34f99f
3d83d236
3e1e2222
bd7de29d
bd3cc5d9
3d662da4
be2e5d6f
bd022a8d
3c8b14c8
bdb3e4ba
be1c50e7
3e47e1a7
3ba5cf43
bca1e2b2
3d3a8df3
bd03c5ab
3d0213b6
bdcb0a88
3e276c5c
bcac5a7c
3e431325
3c29b825
be40cdff
be37738c
3d30ecf9
be241ea2
3d360b00
3e52b844
3d974dce
bc6697f1
3e3689ab
bdc66ea1
be0de29f
be3dc021
be236d90
3c543550
3cc3aa7b
bd54b1b1
be182845
bdd86003
bd662f6b
3da0c391
3e2785be
3e2509cf
be1973ae
bdcc5c04
ba4f5844
be1f4558
be0b5732
be025549
bc2c3789
be227aa8
bc305672
bc5b61f8
bde784c4
bd47bdbc
be4e1530
bd9eb34c
3e0ecc2e
3dc9b915
3d589686
3cfb31df
3dd8ba56
bd63b171
be3321bc
be1cc85f
bcf1da51
be52de3d
bdb3981c
3e28e259
bc3aa80c
be12f66f
bdbc56a3
be10c75a
bd4f213b
bc9ee8a1
3e1f9d62
3da7e5dc
be0b4dca
be29b913
bd3f0acc
bd8a6e53
3e482c61
3d2c5b51
3e560ff3
bdc8fc2a
be1bd33e
bdd99ad9
3e4a0865
3e226231
3e21262e
bc9fb604
3e25e618
3e2645de
be397d19
bc39fc7a
be4854e6
3e058e04
3e3d214c
bdd1a6bc
bdf4b2a9
bdb0dac2
be49fbd4
be1590ba
3c204add
bdce3cf7
3d509eeb
3dbf526c
bcbdfda0
3d8f8914
bb48a317
bd2f6cfa
be457fca
3da44f74
3e3d20f9
bb8a2200
3dcd47f0
be1c04ae
be17a616
3e365bd1
bdcff481
be59606c
3d075512
3ca09af0
3d87e7a0
bd803af2
3d8363d8
bdb8e417
be569b6f
be2a6336
3d65b04c
bccf7036
be36d763
bdfc6b61
bd483f0d
3e4293e5
bce5a6b0
be0a270e
be111844
be16a50b
be07d36a
3dd37187
3e5751be
3d91c907
be19b403
be44a1f6
bcf75f99
bd07735e
bb6d8e1a
3e5c3892
3e217b45
bda2bc71
be2a81ca
3e410ec6
3e2a5257
be3c1c8f
3cbdf890
bdca45e5
3e3a48b5
be42bf88
be588794
3e302cc3
be549e23
3e1fe3a9
3d365469
3e5b8e55
3e3bd114
bdc9b440
3dd7bb56
bce264b7
3d500a10
3e3d5bf3
3e51d8a4
bdac5b01
3e23b41c
3e3d9955
3d886140
bdf30cd8
3ca2b3d4
bde76e19
3e1d012d
3df74c1e
3e478fda
bdd2f17d
3da8a0e8
be0dfb2d
bdc506e8
bda592ee
3e4f8d16
3cdffe29
be4e5ea3
3c3170b5
be0b18d0
3e2512d3
bd92d6d4
bd830c24
bbdd7820
3de023b2
3e26918d
bd65a1f8
3d0c7344
be55506c
b8c86000
3e0cbe91
3cd26690
3d81144e
be2bce4a
3dc6fe82
3de94716
3db888ae
bd06f3ec
3e332f17
3e225619
3c858d98
3d99f9ca
3e284085
3d694ddc
bd315da8
3d1b3644
be0cd0e4
3e2cadcb
bdd51b53
be33bf26
3b0786c0
bd70e53c
be598542
be29a9aa
bdd79eea
3d41f5cc
bdd5acb5
be1df039
be58e1ba
3d5789e4
3d6fc05c
3e59f7d1
bc827e10
3d6a790c
bc993e30
bddbd887
bcfdca18
3ca211c0
bd14296c
3e3d2fd3
3d378dbc
be352706
bd161ff0
be4015f0
3d985072
bbfa1480
bd4a781c
3d5547dc
3da20212
bd88bc50
3e19705f
bdbb06a6
3c191600
3de07a56
3e120acb
3e1d378b
3ded780e
be533f02
3d0bcf94
3deb214a
3dbbcf4a
be26628a
bcdac890
be0172a6
be3bb1ba
bd93641a
3e128737
3d84bb3e
3e06e2a7
3e3a869f
bd4dc774
3c9b52d0
3d79a144
3dd16c56
3de72e62
bcc2ed58
3d6dfa74
3d6f599c
3de96d36
3dbdb452
3ccb0170
3d829566
bd4c5704
be0ae3cf
3e54abcf
bcf37c68
3e13f4b3
be385ea8
bdd6721b
be5998a6
bd3e1938
be4f398c
bb423bc0
3d9bdb02
3dc31e52
be18691c
3bed8aa0
bdffc4ef
3ddd6ac6
be16f928
3e2cbd73
bd98cfaa
bdd6c95c
3e53a3e7
be4dea6d
3dc12706
bcfc1720
be13cf0c
3dfe9c3e
3e3e69d5
bbb847e0
3e3252e5
bc37ac00
bc856618
bcd3cca8
bd4f4e50
bbd47fe0
be1557ca
3d2d30c4
3e1521eb
3bd96d20
3e18bbe1
bb4cb008
bc9ffd7b
3dbf573e
bdc0610d
3e5cc2ab
bc9852ae
3d9dc116
3d945232
3e223938
be57c14c
be28ee49
bd0726f5
3dfc7e3a
3d6a85b3
bd9d1f0a
be5a0b0d
3e02e050
3d84b911
bd861d85
3e1fe6f2
be2d9838
3cf70a6c
3dcfc2e5
bda8d690
3e589411
3e0afde9
3bfe3095
bd1ba628
bdca8bbb
be1c60cc
3c6b6690
bcabe24c
bdf24149
bd835d97
bd29e6b0
3dbf1242
bd401fe8
3dfd9da5
bd843d3a
3dc3bc53
3e09dbb7
3e422dc2
bd725ade
3e2283b3
3e5884d9
bdbad46a
bd982546
3e4bf0a9
3e35d532
bbd0a876
bd1821e6
3d0c2564
3de640bd
3db1ecdc
3de1c9b8
3e0e7d38
bdfc6fbf
be538b53
3dc14012
3dc8f612
be2a1caf
bdecfee6
be2d907a
3e3be190
3e2c17f6
3e2a7179
3dc5fd35
be4e0267
bbb7ded6
bdbcaadf
bd93cc89
3e4cdd0b
be2c6ba5
3e4174ea
be489287
3dd6c081
be3378d3
3e3c92e3
be417843
bd5bb439
3e03b9ce
3c41753d
3e2c3906
3e22b390
3e427a3c
3e164fcf
be1043f2
3d1b1565
be16fc16
bdc9d11a
be404dfd
be585c36
3e28c1a2
bd5f77f3
be23b0f4
3db5a535
bc9b4668
be426534
3df8d4bf
bd8198e0
3d8ebb75
3e3bfde3
3e4de7f1
bd9f0f85
bdf2fb1f
3db9888b
be19c3da
3e0cd18f
3d87481f
3e393c21
3e10df53
3de3045b
3dcaa1cf
bdddd430
3d758773
bdb6334d
bd850bc4
3de68580
bd1a9832
bc0d1e70
bd59b51f
3e4b894d
be56763c
3de69a06
3ddd1e43
3e2d0c2b
3d2fcf04
be010703
be2ee927
3e5cf5a7
be6362d0
be35f866
3beac653
bca738bc
bc9debc7
bde6cb10
be571393
3dce3183
be11ae6c
3ce326bc
be31c9bd
be35a440
3dfc0128
3e403629
be0764b9
3d79317f
3e29fa2d
bd95a36e
be1a1d78
bd980cfa
be4d6629
be2c0d08
3d0de8b5
be0f100c
be4f4c6e
3e0930ff
be34189e
be510411
bd097a84
3db42e93
3e3b7b86
3e0da562
3daf311d
3dd6189e
3e1851c8
bd053897
3ddf34cf
bdb11fd9
3e302693
3df9818a
bcd28f16
bd50b4ea
3c900b47
3cec0eef
bd2c060c
be22b6b6
3d2086b5
bcec4d8d
bdc8b058
3e17e562
bdb80bb7
3e4e3241
3db7dfee
3def3f8c
bdfb795c
3e2534f6
bdc9bbb1
be3bc923
bd131fca
3e573079
be132227
3e4c9124
3daf824a
3db6c1c4
be0620fc
bd57313c
3b920280
3dc52911
3e4c6981
be2045b3
bb8c91f7
3e21fa85
be1efa87
bda492e8
bde311ae
3d83045b
bd1e453c
3e34503d
3e4a3a76
be1e4cf1
3d2b61ad
bd51cf76
3e2a1f19
be434d0d
3e284e67
be3b9dfa
bdd9f387
3e27c25e
3cb2a6cf
3dc4c666
be02d34e
bde3c7d2
bd03789c
bd9ce24c
3be6e830
bda4e5c5
3e173d37
bd381e51
3e2b1bd7
be2e11a6
3e16cf78
be576596
3de6d6c3
be1056fc
bd6ee03a
bd499142
be1f338c
bdbf41e9
3dcbf90e
3d7de645
3dbb2dd5
bcfcbe07
be34a8b3
3dc3212f
3d9c987d
3da91750
be18d7f6
3de21d86
bdf38dac
bd283b38
3e429347
3cfb5e08
be3e79d6
bddf8fe2
3a14918f
3da08d54
bdef0bdf
bdf03989
bd95c071
3e5d5e63
3e3a3b84
3d4eb524
3dd729ee
3ddd2747
3da70329
be1903b5
bdc8780b
3c1158c2
3dacd50e
3dda959e
bd9a9838
bce8ce20
3dbfbda8
bd672c31
bdf3fd33
3d7f48f4
3e364082
be558f2a
3e36dbdf
3dd43bb5
3d730403
bce533fc
3e2a4d7e
3d527d5c
3e452ebe
3be10597
bd75abf4
3e564a7f
bdb8a02c
3dad969d
bd5ee160
be5d0634
3db62a1c
3d83f450
3d96c86f
be494b9e
bdf99e34
bde2bb74
be484793
bddb7fed
3d96cf1a
3e1d18e7
bc60dac0
3c848466
bc274810
ba65ba00
3d571db4
3d99add3
bdd77b41
3e002400
be29b379
3e2ea2db
3e4ef6ad
bde84f21
bcadb99b
be034288
bddc9ee9
bc1c9e32
bdb33a3f
be32b39a
bd8e5a97
3d8ac0a1
be5bbd69
bdec0150
bd2c4b7c
3c509c3a
3dfca9cb
3df90c7d
bc68969c
be06961b
3dbcd1f6
be043f20
3cca85ca
be0cf6fd
bc97eb27
be3a0f1c
3b81337a
3e5c13c9
be38e44d
be4282fa
be363863
be2399a5
bddf54b8
3dce560e
bdb8c6fd
3e49205d
3d76b419
bc0e2fb0
3e077c05
3d1ec525
3cd05a48
bdb0654b
bd8eaac8
3e5a62fe
3e2f234f
3e2857eb
3dcfab18
3e311069
3df30ade
bc8d77ba
3e453a02
be32008c
be4e3e5b
3e471fd0
3da28529
3d6ba8b6
3dfddf4e
3cf83f0d
3dd4a5a9
3e456954
3e5df3e9
bd43e15c
3d250709
3b9a42df
be0d4aa9
bc0f8fb0
be4b4616
3e488e54
bd80d2f3
be1a443c
3d9622dd
bd238405
3ce595a7
3d7bea03
3dc25adf
3e105257
3da85c76
bdf0bb8f
be1bfa74
bc4f35f0
3e247fe7
bc17d18d
3b69a614
be5c70cc
3e036428
bd49140e
3e46528b
3e267524
3e4e4c0c
bd994ffc
be3f6c69
3e3624ce
3dfa7e1b
be3f5b90
bcbd6001
3d4007db
3d21de6b
3e593254
bd0e0247
3da48d0e
3d1bea11
3d8ed916
3dd505ea
be2a8fce
3e14125d
3e4c09f5
3d48a0c5
3e4521f2
bd815a6f
3e2f466b
be1bde17
bd72b95a
3cc33183
be315e40
be55e433
3d0bedb0
3e1b8d95
3d913d91
3e197549
be2b02c3
3e4c762f
be469c19
be326000
bd93cf0a
3e3c0661
3de92af6
bdda27c9
3e43987c
be548c0d
be3dcd47
3e3ca574
3c929166
3db261a1
3d9ea896
3d1d15f9
be51a8eb
3e3ead05
3e1fa8a4
3de99a62
3e56b632
bc96a2f0
bde5272e
be2a8e85
3cbac54c
be08b5c6
bc479c47
bd7d0dd5
3e5c7569
3d277ce2
3e16fa8e
bcda7f7e
3e0f7132
bd4f30e2
3e4cb2dd
3e15df90
3dcd29f7
3dd353cb
bc9f51ee
3d571e5a
3dc9b908
3ce38de4
3e58c0c0
be190706
3df42c7c
bd4eaf23
be11a3fe
3c727dda
3c0d0521
bc7aaf50
3db43e67
3e188074
be327de1
be219303
be0bdf16
bdc8b004
3dc1dd62
be55112e
3de0084b
bd383bab
be48f553
bc5dbab8
bdd2084e
3b5f2a2f
bc09a15e
bd4e72b8
3d9e251c
3e09c04c
bd8493b4
3bd331ee
3e236767
bd23c85e
bdd0ef71
bc4742a6
be38cb2f
be46bed2
3e3e8dd0
be02d8c1
3cce1180
3e49b04a
bd9c76f3
bcaa0481
3e34197c
be1774ca
bdc033dd
3e5f6349
3da0294a
be49c0dc
3d3dc5cc
bd292529
baa86551
be250415
3e06cfbe
3d487223
3e0059ba
3bd36360
bdb378e6
3dd2162c
be304919
3e36b9a5
bd273b2c
3de22126
bd7a748f
3c098ff9
3cdc033b
be48cd8e
bdae60e3
3e0eb4e1
be382d61
3e2e6710
3d01e56c
be110992
bcd165f6
be28e6a5
3e49d864
bd6b178f
3cb07ab5
bda3351f
3d46d32d
bc8995d1
be07a241
bcf08d21
bd909946
bde1c319
3dffd66e
3dbed52d
bd506621
3dacfea2
3ca4b844
bd48bdd8
bcbdff51
bc6ddac5
3deb7ed1
be2b4940
bc1a52e4
3e02fdac
bdebcc9b
be1ae440
3ae5941a
3dd3f396
bdaee061
3e21f55a
be47ec2a
bc45f66b
3dd9f094
be0c0d11
bdb678cb
be2d6a5e
be25123a
3e4175b2
3e5a4009
bd81aa3e
3cfab540
bdfbb45b
3d6b1bc7
be020e98
3dcb2a7c
3c3c7230
3e160fbf
bd08353f
3cc042ad
3de9a4cd
be190b34
bd06f427
3d80ba7a
3dc37c57
3e0d2e1e
be02dfce
bb6be9bd
3c7697a4
3e50b15e
bd88d800
3d9ece75
bd0641bc
be3ea7b7
3c7ff070
3e1d2935
3d921c86
bc50bbd1
3d1fe854
3d5aef0f
3e4438f8
be3d6698
3e57fe3f
bd353029
bb069c69
be4adcb4
be497f7b
3e0f2248
be366e6d
bdaa29fd
bdc4c955
3d068faa
bdc98a92
be2f8105
3e150b72
be0bb2c6
3e60363b
3c25ee4f
be5ad0ef
3c027d4e
3e559168
be328faa
3e15e841
be595ce7
be29d65c
be35423c
3dbd3d9f
3e1ed0d8
bd6bbd59
bd6b49eb
bce82d12
3d69619f
bd356212
3d26147c
be07a624
be4faa3b
bb891b6d
3e530690
3d26842a
3dcda675
3da65f03
bcd7d2b0
bdc3cde1
bdd7dbc8
be5f90f7
3d990bdc
3d0487fb
be14c0ba
bd1e57d6
3e6473df
bd8fe02d
3e1d1364
bdc9cc1c
3e05edf2
bda6c3d4
3e02605c
3d8ed2f2
3d91e0d2
3e004d8e
3d514fc4
bdd40198
3e0de407
be3d6f2c
3e60a093
3dcb699f
bd2c2d35
3cf85d8c
be02ba86
3d1b31e6
bd8fba73
3e4784f2
bd8c852b
bdb1f676
3c5d9a3b
be231618
be2f8b18
3dd1e55a
3e2474a5
3e2d2991
3e55fd63
bd8ca173
3cdbc6a4
3d081070
3e3061c8
3d59b63b
3e415807
bde92937
3e22effe
3c9dbf30
be11f103
bd0457d8
3e333ddd
3d4370bc
3e070166
bd5c98e2
bd98647f
be0580a3
3df9bc1a
be2f4b0b
3d28d039
bd7be776
be4d1f4e
ba6d06c7
3cebbad1
3e5d0897
3e4fa32d
3df0c01d
bdc29c94
bdc3b251
bc944a1c
be23117b
be1486fb
bd07bc4b
be16799c
bdff3fa5
be4e3762
3da23463
bdd2e07d
be5ebc6d
bdba8155
3e49edca
bd4c7214
3e4fc3f9
3e0a9d1e
be0db496
bdb592fb
3e233af3
be3cff46
3ddfc719
3ce228ee
be15b3ce
bddaa202
bd8dff2c
3ddcef7b
3d700f97
3dbe40c5
3e0430c0
3e39adcc
3e0266d8
3dd993a2
3ac7d080
3d34f46d
be0a78dd
3e197d0b
3e2da71c
be104a2e
bdbbcc4e
be48474d
3e5be2fd
3dab6f26
bdc02c2c
be2de936
3c36ae8e
3d988e4e
3cdedf54
3dd58c07
3e53e814
be0dfc33
be35e755
3d3e3317
3d86597f
3d860d3a
3e2eaf14
be140133
bd92124a
3e11ca9f
be0c4079
3e24edc8
bd1303a0
be0e084b
bbb67674
3defcdae
be3e5b7c
bdeb445a
be16c198
3c8d07f2
3e57a074
bdf34608
bd434663
3e52f2a7
3cc4c2ad
be096c96
bd855c33
bd311f78
3dd42f23
3e2f3a6d
be196534
3b1bd186
bb9a21e0
be2bcdf3
3e13e7f3
3e2ff1b5
be54d756
3da147c3
3e418756
bdb90c26
3cdda949
be636ba1
3d6e3bf6
bd9b542f
bd436638
bd7d515c
bd083273
3c190bcb
3ceae538
3d84e7b9
3bf3067e
3d4027a5
3cb94c4d
be1da353
3e08cfe1
be0c1b58
bdb99466
be0ebbe0
bd54978a
be048341
bd064532
3c5b0280
3e0bac68
be354340
3e2b52da
