bd4b5558
3dcb7afe
bcedc627
3c399d42
bd62055b
3da7f8b7
3d88671c
bd6fa870
3d53b3b9
bd9f47d1
3c202d1c
bb295fed
bd897e4a
3d94c4df
3db50a4d
3db2343e
bc20acc9
bd9ab705
3db638fd
bdb0912f
3d593ab4
3dbb7363
bd373b7c
3c927621
3bdf675f
3c2e5a1f
3d925ce1
3cf1a018
bd1604c3
bb08707d
bdc8c3ac
bd8281c2
3ca9dd0b
3d32d948
3c8104ed
bd01e156
bd1a481e
bcc27d19
3caaa208
bd2b087d
3d1f24df
3d644982
3d3ee9d2
3dc27308
bd0dc177
bc11052d
3db2c942
bc4c5d74
bce0540a
bb365bc0
bdb97f5a
bd48cd29
bcc789d9
bd01607d
bcfd86de
bd810f0b
bab17098
bd27752f
bd878b20
bd6762a5
bbdc9357
3a381f0c
bdb23c40
3dafc253
3da0d445
bc0ed1ea
3da4ec4c
3aa2deb8
bcf93744
bbe204d8
bb4d68dd
3dafe3d0
bc7185c2
bd301d28
3bf6f3e6
3d1b9378
3d593e15
3d4becfb
bd0ec211
bd1aefe1
bd21333e
bd6b1ae6
3c661a0b
bd66d1f8
bd4a4b4d
bd838a24
bcb58ab0
3d087ab0
3d850b1f
3d14dcba
bc81c989
3d55bbf0
3d674206
3b4c2bc2
3d322091
bc0266a6
3d5f5a09
3d6a3df0
bc057d58
3ca2acd6
3db60450
bd78cf46
bdc219c9
bd670c39
3db2fc2e
3dc735ee
bdc30bf7
3da51d95
bc2fdbc4
bd8effc8
bd8d4685
3d9c6cd4
bdb27f87
bd5c9b8e
3cfe3bb0
3d25af12
3d17ef1c
3d2b3b19
3dd0de9c
bdbf5590
bdbda4cd
3c82fc8f
bd790e19
3d98a69e
3d428974
bd2dfbc6
bc80db2f
bce5f30c
bd18ada6
3d07df20
3cd25768
3dc18ee6
3d6ba40c
3da1eaa7
3db0bb36
bbe55e20
bd6a920a
3d86dc68
bcde8c40
bd83eab2
bc825610
bcc4b4a8
bc6f1e70
bcb989dc
bdaead68
3dc12897
bb6d1d4e
3d13674e
bc5522e7
bdc85716
3d836fd1
3d45b03f
bdade1ae
bdbe66e9
bd1642fb
3d4d88dc
bda5ea67
3dcaf942
bb93ce77
bccbb195
bc4b54b7
3da17efe
bdae93d8
bc1dcd35
bdb3f562
ba901649
bc8a957b
3dbee922
bc8565ce
3dc045a1
bc8b0ca9
bdc1cffd
bd0ec4bb
3d60297e
3d83745e
3d80df5d
bcce386e
3d51e858
bda9556f
bcd5e002
3d2aef70
3c7c8d13
3c8077dc
3c9cef94
3d2d2dc6
bd60f659
3c68cf37
3c50facb
bd898f7a
bcc4e1d1
3aea352b
3acda46e
3d652cd7
3be046f7
bd3c7d27
3d09bba4
3d3c9bb4
bc83d13c
bda67128
bccf3430
bdba4b04
bda7f632
3d928af4
bd81fbee
3dbf1364
bc36f502
bd952902
bdc1946c
bdb2ac94
3d128a8b
bd630067
bd8386fa
3c5cc7a4
bcf4f9aa
bd813427
bdc4152d
bbea9fbd
3c9256cc
3d77bcd4
bce12908
bd652da8
bd54dfdb
3cfea1b3
390e4bb6
3d47ee96
bcb09e92
3d6cdf4f
bd02aa54
bdbf6000
3c90dc05
bdc52f01
bd4ac53f
bc283058
bdbc4fb8
3c4df249
3daf13ff
bd91a9b2
bcb93302
bca20799
bc67b2ef
3d09bd2a
3c81d764
3dc00638
3cf7c1b5
3cd6cec6
3c2be9d7
bd3cd6ee
bd91c90c
bd27c586
3d0f67db
bd8ea5c2
bc987147
bd230936
bd04cb82
3d72ee97
bd5b9edd
3d95b321
3bebdd66
bd7d66f4
bc893c43
3d46c53c
bdbac3e8
3c2fff57
bd1a0e15
3d49c609
bda7af49
3db398c7
3be9e607
bc89fdfe
bce1281a
bdbcb8e2
3d37e25c
3d06c4a8
bc5b44a9
3d1e615b
3d09dca5
3d86db12
3d798a42
3d7fbb34
3b2d5a7a
3b3bfaf6
3d4d91c6
bd5d9383
bd009a02
3c5d9a66
bdaf636f
bd698ef2
3cabdff7
bd1b9a3a
bd0db851
bd1bf6aa
3d377c94
bce23e78
3ba0cb4e
3c1ac4b2
bd8fc99e
3caf972e
3c8f4877
3c1bd97f
3c458609
bd56c54c
3d4d2eba
bd35cf21
3bbcd1c8
3dc9d644
bdb350f3
bd6e385c
3da46431
bafb647d
bd8a30eb
3d9bb4ac
bd3e7555
3d84f4d3
bd9be005
bc299d5d
bd35a7c4
bd73586e
bb3d9879
3cbf7047
3c10bc6e
bdbb055f
3d93d396
bd13cdb0
bd350647
3d9245b0
3b065577
3c3262b1
3c90facc
bccdaa33
bd23f817
3d67a796
bdc01d29
ba7172d8
bd70fd04
bc4d00fc
bc108b5c
3d7aacbf
3c045b5b
3d71d132
3da0dfe8
3c8058e9
bdba71fd
3dbefa5e
3d89333f
bd414f62
bcd797f6
bc70fc68
bd9c0a79
3d8131f6
bd8c33a7
3be0e928
3d2ccea3
3ca9fae4
3cc35cd0
3b21c77b
3dc302c8
bd7ae4f7
3c7dce74
3d2c6684
3ca03fe6
bc9c23d9
3cb6add8
bd4bf804
bd7d5960
3d94622a
3c9b2263
bda66c5a
3cd46b5a
bd1be246
bd9e878e
3da05ce6
bd9e212b
3d2b99e0
bd3856e6
3ca3e712
3db559d2
3d8ff1af
bcd7bc50
bd9f6b6c
3d43951e
3c16a558
3d89234f
3dbee0f6
3d35fbfb
bdad11d9
bd146ad4
bc5b2662
bd83f409
3d018b4c
3da9875b
bd96b3ee
bd393ea0
bda650d0
bcda4087
bd3850ba
3d99446c
3d07e371
3db84807
bd9bb518
3da8a728
bd847139
3cb4e251
bc98f2d2
bd094052
3d257130
3acbe1c0
3d93b1c8
3d07b0ef
bd93aba3
3ce8d643
bda40f95
bc692560
bd8d4541
bb4bb5db
3bffbb16
bd960e56
bd83fc9e
3c7160aa
3db8f416
bd9fd04d
3d3da456
bd44af59
bcfb7b61
bc8f6ab9
bd071c7f
3d17190a
3bde965d
bd7dd558
bcdbd626
3c8ce2d6
3d91f320
3cc247fe
bce63754
3c2ea7d8
3dc1955e
bbbcaebd
3dc6e637
bd9b4942
bd129212
bd9f00cb
bd933a4f
3db3ea8a
bd7ea60e
3d7b4ea5
bd936dc7
bd3384ba
bdb4d640
3ca4def3
bcba727e
bdbc802b
bd7cd61b
3d9dc74d
bd613469
bc806b44
bcd278c3
bcf647f4
3d9a358c
bc45dfa5
3d5a5e4c
3c6aa77d
bd627fe2
3ba80192
bd97d0bb
bd981557
bc84b491
bd5ce5af
3d39cf7c
bdbf3ec9
bcfd5877
3d83986d
bd4bee20
bdaa89bd
bc42afb8
3dac31a4
bd1efdf8
3d17101c
3c6af099
bdb5fbd6
3d1fe59e
bd0269ff
bd2725c8
bcbd9f2c
3d1fa26c
bc5dcba7
3c6b3ede
bd94d8dd
bd49de8d
bd88f6e3
3da004d9
3d2ea001
bdc2428e
3cd65bce
3dae939b
3d2f9f69
3c38e64e
bdacddcd
3c7c179a
bd111469
3db7873c
bd0303da
bdafac8e
3c160c29
bd647e48
bc9d94b4
3dc686bf
3c74ea07
bdb17f31
3d95385d
bd85b97a
3d7e6a17
bd495bcd
3dac9570
3dbd17c1
3c57d9ae
3d0114aa
3d5aa893
3c9b4d48
3dc5269f
bd1d0003
bd6eb2a6
bc9c676a
3d49e2d8
bda1a951
3d67dc72
bd90d933
3dbba158
3ce46573
bd618e0d
3d2e6fb6
3cf72a11
3d45883b
3d9dd313
bda5492e
bd99831d
3d28a45c
bdb48b49
bdb4601d
bc834cc8
bd3ce422
3cf93e88
bd5d465c
bdadae0f
3d25051d
3d1386a5
3d346b63
bd2aba9a
bdb621a1
3d48ab51
bd96226b
bd7b68ee
bd9f0468
3db9b269
3d227d46
3d399718
3d6733e9
3d238721
3d244235
bd358070
bdc2a9bd
bdc2588e
bc4d43a2
bd86d214
bdb49628
bd1bb6ab
3dc5b6b5
3c80d61c
bd5e8d36
3bd54fe2
bc0c8504
3d72a9cd
3d2f382b
bdc333bb
bd1f1939
bdb9c789
bce384a1
bd3f53cd
3caa2f7d
3ab88adc
bd93d0de
bb090927
bc9a1b84
3d05f28e
bcb5c87c
bdb250b4
3d3948b0
bda645b9
3dc21bf5
3c979150
3d67d8d4
3da0ad2e
bd8bca70
bda7ca15
3d2191e8
bd82802a
3da960d4
3cd1398c
bc5fde41
3d1b8f96
bc89fc40
bd7256b9
3d3c141a
3d50d4b0
3ce02185
bb4ca140
3caf4788
3d493349
3da0d172
3dc791ed
3cebb533
3c13aa94
3cadcd38
bd9c1f75
3be518ca
bd71220e
3db165b4
bdb4cc83
bdae7119
3db1a09a
3d0e153a
3d5ee510
bd91dd22
bb9a664b
3d481835
3c94616b
3c614865
3d2f5c68
3d0647c8
bce178be
3d966f84
3d8d7be4
3d5db6e7
3db92df0
bc03ced5
3d204cc2
3d93aa78
3d688502
3ce5aac5
bcfb07a2
bdaf85b1
bcf9fe30
3cb590a9
bd6853e5
bd92a2fb
3d8819fd
3dc5585e
bc4b57e9
bd4ba4db
bc60c440
3c9184f3
3d3fffe7
3c51e42e
bd9d889b
bd8d2e14
bd04ac22
3dc3f605
bda1548e
bbd30515
bc93dcfb
bd8b477e
3db153dc
3d782afa
3d352d39
3b810eba
bbceae81
3d6d4af8
bc106550
3d96bfed
3ba2eaa0
3db66ca7
3d12192d
bd03020a
bda5bae8
bd6c31cc
bda6a449
bd93a7b6
bc888be0
3984fc31
bd29eb29
3d380f7b
3d6d4612
bada2230
bce60efb
3d8fcd6e
bca53ba6
bd830712
bd2e1eb9
bd908a4a
3d5080c3
3b892f6b
bc9cb824
3d004458
bd0254f1
bd20f1c0
3dbbbe89
3dc7c5d2
3dc2cd3d
bda869c7
bd9e26b0
bb2c05d4
3daee4b4
3d39d6d5
3d302f6a
3d1cb870
bda828df
bda3d51b
bc97e16e
3d2c3aae
bd42cca1
bd8175e2
3cc27ab3
bd9c4bf4
bc762a30
3c4a692b
3dc450cc
3cd51124
bc96f408
3c8284fa
bd9a8f7c
bd178674
bd23558e
bb83b9e2
3d012aa4
bd7188ce
3d8c40d8
bc733bea
bbb316bf
3ce8e292
bbcce940
3d947f24
3d8de8fc
bdb7c06e
3d1443b4
3db94766
3d825397
3c8cda17
bd9bc77a
bca205cd
bccb3a33
bc16db10
3d284d7b
bda48f5e
3d8286a0
bcd9bde3
3c7531f0
3cb8c466
3d36efe0
bce428f6
3af4440b
3ce4971b
bc201549
bd9676b4
3c9097a6
bd86f0c3
bcad7ee4
3daae06a
3db68b8e
3db49298
3d551ee9
bdaf73e1
bd7c99da
bcc9e9e4
3cc7ec0a
bd2a2aff
bd998e30
bcac70d8
3d480395
3cdd45df
bd368a10
bd8ec2e4
3cab5ec5
bcfbb5c7
3db770f0
bc669fc0
3cddba67
bc06e8bb
3d50b230
3da70222
3d8657cf
3d1d21da
3a828e7e
bd9a2adc
3dbd4444
3b6c109a
3c27366d
bd93482d
3d825af7
bd851fdf
3d462e79
bbf5eba5
bce91796
bc04e513
bcd2ffaa
3c262980
bd92d4a2
bc361f2b
3dae54be
3d78189d
bd6cce4c
3d08c5b2
bd8578ca
3c12c034
bb6de408
3d2e6b9a
bdb56635
3d2390ee
3d43d45c
3dc509ee
bd7bc820
bbdae03b
3d2fc73f
3dc3741f
bd3fe71d
3d8403a6
3d63cba5
bd8e2b8f
3d838938
bd5c6ecb
bd1fc975
bd04b560
babdab24
3cfc91ef
3d3c5f25
3d5423f7
3acee456
3dc40d38
3c83fdf1
bc3a0a20
bd645a1d
3ca874d1
3d2b134a
3c5f87d6
3d8b33eb
bc9637cc
3ccae39c
3c9fd5be
3c4d8c58
3d66003c
bdaeba13
bdb00fb0
bc170260
3d34cbac
3dc56522
3cfcbda3
3d19e222
bda7803a
bd73fd22
3d7fcd34
3b3e090a
3ca9a291
bcde3790
3d6b24fa
bae2b6a9
bdacbaf7
bd2c1ae3
ba4d4126
bd2293e6
3d9244d9
3a7c42f8
bda325e4
3c698570
3c7a3d98
3c891311
bd932511
ba16b95d
bdc0a302
bc50453f
bd90e47b
3d3f52f1
bd893bf6
bd57bad7
3d9adbc5
3d575cbb
ba648765
3c4e9801
3c96ac86
3d8251fb
3d3820c4
3cdc73db
3d13f8ad
bd96bcbe
3d84f83c
bd516f04
3d098b80
bd20fbac
bdba2870
3cbd2825
3d5cec2a
3cdf7a73
3ce7b098
bd4a302d
3d801d24
bdb82013
3dcb1a64
3c5b9daa
bd2edb70
bd2c38f7
bd4d227c
3d8acc30
3dc42ef3
3c1e49ff
3d5d6bc8
bcea3c56
bd8f2192
3dba9aa0
3c17b672
3d94c583
bd29adfc
3cc99d39
3d7def30
3dbb5f3b
bc2cfcb1
bb49dce5
bba484e7
bd4e46c6
3d89d426
3d984475
bd68d91b
3cb88796
bcb8a93d
bd67679f
3d9fc178
3d8d9587
3d2e068e
3d9bb698
3d321585
bd45d564
bb7f9962
bd876abc
bd8c1f4d
bd70ae1c
3d57f0c4
bda51ae0
3c6c0ffc
3d5152b1
bd4309b2
bd8b40c1
bdb2859d
bd790d0e
bd124cc0
bcae4a86
bd89b395
bc87bf41
bdb68952
3d7b96a5
bd2e282d
3da14d76
3d94b1f8
bd6af193
3c887b54
3dba3c60
bd990703
bd5110c6
bd420f3f
bd2e3a7a
3cc1b075
3d9e2820
bd5cb7b9
3ca64062
3cd6239f
3d659f6c
bda65547
bd6e2203
bd7c6d0b
3d6ee086
3d81af30
bd2306a0
3d00d271
3c763048
3cf265d3
3dc11d8a
bc195bb4
bca09e18
3d596dd7
3dc4535c
bd56baa9
3db8e54d
3da3bb0f
bd8b234d
3d19aa75
3dbe1933
bc90681b
3c54a348
3c799aaa
3c71d673
bda4e09c
bd8e9191
bd2561a2
bc447348
ba6fb6e4
3d21e283
bcb3a33d
bb52a07a
3d7b1332
bda96899
3bb9d93c
3d9b92e4
bd9cca62
3d7ba080
bd72121d
3d8eddd9
bd3251cf
bc5d5043
3cf1d2d8
bd4b9cbf
3db2da9f
bda74609
3ce0340b
3db10853
3d0d8b7b
3d2aee84
bcb9d280
3d86c8d7
3dc5bc7e
bd925a98
bd387971
bc47f37c
3dc9d076
3d921238
bd6d6543
3d127b27
bd1d2ec5
3d8e1a0d
3db6d1ce
3dc3234b
bd8ff9f8
bd3cb8b8
bd7d0bf4
3dbc0398
bb8fb860
3db0fc19
bcae21a4
bd9eeed4
bd183209
3cfdcdeb
3dc1020f
bc83ef1e
bd6ad9d7
bd3a8c69
bd1083a2
3dc378ea
3dbf9c04
39defa17
3dacdc3d
bc23cdf6
bd0cce6e
bdaa6bfd
bcff6fcb
3db41776
bd4f6f29
bd82385d
bdbca0d4
3d8f8af4
baad323b
3db0d5e8
3d1be389
3ca2b5ec
bd727eb0
bd1a3987
3b92647f
3d0588c5
bd87371a
3dcb6d82
3d677310
bc987c97
3d8c8d92
bd2f6848
bd795e5a
3c2b7a0d
3d778ac3
3c082413
3d8a0a2c
3d5154f7
bbb6bd13
3ba929f0
3d99de82
3d9c6435
3da30916
3c3ac858
bdb8116a
bc751ea3
3daf8f6d
bc633b94
bd5f30b8
39b9d2a1
bd546da7
3db8ff4f
bd041c04
3b094685
3d891194
bd8c0df3
3d816792
bd8bac95
bce24458
bd4f3a20
3cc99913
3d097a18
3d320229
3db4f12e
bd0af551
3d5badc8
3d96dd90
3d7a1bf4
3db4fdd2
bd2b617f
3d38c27c
bd8bdb17
3b351c92
3d4b5cdd
3d44107d
bac86cd5
bdb73cea
3d9f0b32
3d8d88fe
bb91826c
3dc4a8ad
bd659135
bdb6d096
bda0b8ac
3cb36f6a
bcbaf397
bd0703a4
3d00ea3c
3d233114
bd702aea
bdb9c3f2
bd922503
bda0064d
bd768934
3dc7f21e
3c1f8c73
3a95c69e
bd66fe11
3af2d66b
3dac597a
3d32cc72
3d94ce4e
3c40fa52
3db72f5a
3d8514a4
3d8301eb
bd529257
bcf85077
3d523e0a
bc0d60a0
bd2c9d65
bc0e17cf
3d974026
bcd12494
3dca407d
3d9fdd38
bd89ee9a
3b038daf
3d7296eb
3c9348fb
3dabfe5c
3cb2ac6c
bdb268e8
bb440ba8
bdb9d301
bdc0776e
bd402ead
3cdcec7a
3dc206ef
3d27bc82
3d2cb0de
bd6eea23
3cd9e501
bd340900
bdc28859
3db4711c
bd47443b
3cfbd973
3dbf547f
bd673fa8
bd63bd93
3da1f2b8
3d83ea08
3dbabf21
bd81e086
bd8446f0
3d1a97e3
bdc01b9c
3da523b2
3daec5e8
3d6a7da9
3d04a3c2
3d0e8ce6
3d5c9748
bdb3ef12
3daacbd2
bdb42a4f
bd9a4bff
3c7d76e5
3c9848f0
3da657f0
bd1a9f3d
bc4e6dcb
bd4b42df
3c84dcaa
3cc9f322
bce3aabf
bb852fa0
bdac109d
bc7d6d22
bdb81d29
bd8157f0
bd143d3f
3db23db0
3c8b070e
bd8eba3b
3d3042ba
bd8fcbac
3cc31a6e
3c4aae8d
3d616b52
bd3f8a0f
3d818d11
3ca5e729
bca504f1
bd9277ab
bce92e0c
bd8de840
3d0f12ce
bbed5850
3c019c7c
3a8b67b0
3db55e4b
3d274c48
3d3df733
3dba3baa
bd084632
bd029b2a
bcde00c8
3d96b6f1
bdc5c72a
bc99b552
3d385573
3cdcc6b6
bd999ee9
3c3b2cb9
bdb147a7
3d8b3ef6
bdab172e
bcc1ae60
bd143808
3d8400e6
3dc5a621
bbfa5f52
bdb5cf0a
bd8d95b7
3d82c739
3c874485
3d8645d0
3dc77550
3d3d1f3b
3d6e341a
bd13d315
3a30e1f9
3d954b20
bcaa32c9
bd8e527c
bc66a847
bd8f6c73
3d933d0b
3d4d287e
bd559bac
3c13e710
bc35fece
3d1e97a5
bb8743c1
3d8551c4
bc7f5048
bdadc5c1
3c85cebd
bbbabed9
3c907c03
39e7439e
bd07f6a5
bcbc6167
bd615b17
3d91d31f
3dc7afd9
3c836eec
3d4f0de4
3cca5628
bc623028
3a80f1b6
3d50fe88
bd1b8db9
3d920029
bd9b0da1
396a0c30
bce69ddc
bd028925
3d1e1497
3d1199ba
bd90f198
3bcc9415
3d156586
bccbeb99
bd14a4fb
3d1e7630
3c19d1b6
bd7afcab
3d55fee1
3c5c7ece
3db9ceaa
3c221310
bd29808c
3c09f92c
bd117f85
3bc792c0
3b7c8869
bd8934e9
bbbc03bb
bb7433dd
3d76171a
3b55082d
3d7d05bc
bdb00316
baadc928
3d4fd03e
bd995b94
3c24a553
bd9a63a1
3bd98215
bd8eea88
3d758690
bd63fe93
bc77abf0
bdc5b119
bd5360b9
3c0fd037
bdb9cc82
bd0ab11c
bc12ef0f
bb50ceed
bca6e1e1
bc0ead97
bc082a11
3b2ed43f
bc03e73c
3ca7dffb
bd8adc95
3d60db88
3d4ed658
bd525129
bd305b5e
bd9453b0
bc7ce942
3d86aafa
bdbe8829
37b17f64
3dc13f1f
bd8a9400
3d21f127
3d0978ed
bdb2e5a6
3d749550
bd68ad93
bcbf6a0a
3d4b5b85
3da195d5
3b5749ea
3da8b9a1
3da57bb4
bd867f61
bdaf3674
bdb11f21
bd02e1af
bd5c31b2
bbfcb590
bd37e186
bd8ab737
bd4d891e
bb627f96
3dbc6170
bd0cc067
bd5d69cd
bbca293a
3cb13171
bceffa70
3d80ff3d
3d946921
3b780cfe
3d8d6702
bdb61b70
bce573b9
3c0feb75
bce707cb
3d887b38
3db0d2ab
bb838907
3d85e82e
3a88bcc0
3d9a2eb7
bc29be38
3d3b0ca8
bd18c080
3db66d24
3d8a0060
3d4ecf26
bb09675e
3d988199
bd4f5fef
3cd3cbec
bd21a5a6
bd56fe69
bca3b1aa
3db4cf03
3cd70c96
bdad5b18
3db12e8a
3d847f3d
bda1e1ab
3db22772
bd44f62a
bd2ea0e3
bc8c2512
bbe2b2b2
3db7e543
3d730cea
bdaad1c8
3d461f26
3da9bd62
bd6fdda7
3c826032
bcdd1eb6
bce10c79
bdb74928
3c21126d
bc0e888f
bd418825
3d994e99
bc616f43
3d289db4
bc5437fe
3b223da0
bd4edb1d
3db5e317
3d371537
3c29bc26
3cfc4705
3c8c56b5
bd336071
bc7e4b72
bd5597b0
3d265a63
bd4caf5c
3d238ecc
3dc32bb3
3d22049d
bc71ab9e
bd22babf
3cb03c51
3dc23a08
3d8b44af
bdbb3361
bd0ac9fa
bd3b00b9
bca006b3
bc87fc8f
bd7ea919
3d26133b
3d53c5fc
3cfe50cf
bda30429
3d529f13
3d987680
bc89302e
bcba6380
bd163b10
bd93c15a
bdc7a890
bd88314f
bd7aedc9
bd73432d
bd0399db
3b135db8
bdb7274b
3c917314
bd7ec051
3c87dd93
3c86487d
bb31db82
bc1e4515
bdb94a19
3d52078d
3d595680
bd2e7e1e
bcaf085d
bdb90b67
3d660f76
3db10a90
bd2d89eb
3ccf957b
bda1fd9b
bdc6b934
bdb18e60
3cb4f200
3d1f533d
3d9d5102
3d8d7d8a
3dac8992
b983e3eb
3daf310d
bdb207e4
3daa7cd6
3c31061a
3d8c0167
bbb95922
bd153077
3d795470
bd935d05
3d22f177
bc12d430
3cb85553
3db185f3
3d3eaa05
bd1ab67f
bd31be27
bda25c8b
bcd0491c
3c86a741
3d466717
bdc49e76
bdb1e2cf
3c5c141f
3c915041
bd1942c6
bc743545
3cb916c5
3aa57c8e
3d7b1e0e
3da97f5a
3d1910b8
3db3bb59
3abe7ed8
bd2e0c4c
3d21000d
bdbc0f7f
bc9fafe5
3d8ce1cb
3d27f8b8
3dc777ec
3d94805c
3d1fa631
bd6c3f39
3d272cf7
bd77737d
bdb8ac7e
3d2930d7
bdad4051
bdbb49bc
ba282713
3dbd5312
3c26c63e
3d9803d6
bd3acfea
3d27864a
3d6df0c8
bd641d16
bd6594fd
bccb15e8
3bad572c
3dab8d3b
3d9aae92
bdb25326
bd044164
3d149906
bc269234
3d96a877
bd245614
bd9833b9
bc57039b
3dac9e5b
bd189374
bbac8428
3cc26be5
3d0ca28a
bcff770e
bdba1e2d
3cbc912d
3cbf092f
3c2720a4
bd9b5fb0
bc14f438
3db3e7f5
3af78249
bc5872cf
bb7c4d31
bdc5ae1e
bdbacfeb
bd0b8f3b
3ce69ae7
3ade15fb
bd114d35
3d169b30
bd0c7605
bd95c579
bd0a3f17
bdaa0a70
3db6e7bd
bd0bea56
bc978910
3db0bfe6
bd82f377
3bdb9100
bce6dffe
3b86cd3e
3d69ab9c
3d2139ac
3d603e02
bd17c974
bd9cdd96
bd5e79b8
bd54edb3
bd92dc67
3d850af3
bdb33990
bcfd460f
3d4897ef
bdba6387
bdc497d6
3d6053b7
3da66588
3cbaf62b
3da32762
bce90baf
bcac71ed
3da39e63
3c034d51
3d5fbc2c
3d74675e
3da2ae78
bc211b4c
bdab3f8a
bb08701f
3d22304d
3c89c09b
bdb616bd
bce68880
bdb7853b
bc133d5f
bd6c6fe6
bb301613
3db7b0a4
bdbcc27e
bd0ac53b
bd4fd81d
bc0783e0
bd3527cf
bd6a194a
3b64d3e4
bd9fb669
3b8fb5b6
bd80ae4c
3c97e82c
3d0c4eac
bd9a1a7e
bcb4aaa5
3b2e0442
3cb113ff
3cf2f5b6
bd967aba
bd1627dc
bd53efee
bd55a1d7
bc061218
bd91af05
3d929901
bd0bea4c
3d039bd7
3da59464
3d697366
3d2798e5
3d1ff0eb
bd025c1a
3baa0a27
bdac19c5
bc5f8851
bbc0fba8
3da8ac71
3c40f9e0
3db273b9
bdb94492
3c493e3b
bc5cf4e1
bbf1a1e7
3dc04017
3ccba250
3d84b62a
bc523360
3da4dcb1
3c850512
3da32b47
bda6f732
3dade6da
bd843b8c
bd9578b8
3d92f1a5
bd3ba008
bd3778d6
bc93fd7a
3d355679
bd7022b1
bd033902
bcc285ef
bdbb706d
3b8737a0
bca4b176
bd62ab1e
3c6e9ab5
bd2fbda4
3c61f3c8
bd396c94
bd9ad0fb
391d08ba
3c8fc9a1
bd87ecfd
bd98a4e6
bd4e17cd
3d853559
3d4cc032
3d6561a5
3da73cbd
3d682dda
bd7836b0
3cad2d2f
bdb164fb
3c3e98d6
3daa6d18
3d8b4e06
bd8c4b5b
bc98f40b
3c51f2a8
3d9369e4
3d534e39
bcdfa95a
bc86ecbc
3da1f38b
bcd63c0c
bd8ff575
bd3a6b53
3cccf20e
bd483f70
3dc1eee2
3d6c32c9
3bd636b7
3d51ee3a
3d1f7f78
bd1120a4
3d1ef5c1
bd430e06
3db60e4c
3c97be50
3b7d8cd3
3d5bd2d8
bd9c3c82
bd353bca
bcc39dce
bc43cb89
3bec521b
3d865a71
bcbdacdd
3d48c0e7
bdc4c658
3d89b326
bc881689
bc72902e
bd99493c
bdb0688c
3ad7d9d9
bc8fb11e
bbe26c74
bdb2003a
3d89421d
3d596c5c
bd867e95
bc33c9c7
3d05b7b1
bcb708bd
bd8babeb
bdadfab9
3d2dc439
3da61028
3dd3bc86
3d22bd0d
3d8e859d
3d873984
bcd84d09
bd8e9968
3d3e05d0
3cd90604
3d192016
bd0052c0
3cdb26e0
3db840a0
3d122fe7
3cde33c4
bd1e60a1
bd6fe5e6
3d798bc3
bdbdb5a6
3d6c7bbf
3ccd2b87
3dc95161
3cc0eebc
3d274860
3d251a75
bc70415d
3c8fd087
3d082485
bd24d9c8
3d6101f8
3d57fbd2
bd9fa320
bda9dc5e
bc8fc94e
bdaa4cf1
3d8e605b
bd736548
bbfdec06
bd6ed00b
3d0067ab
bd328e59
3d621207
bd178831
bdb97aed
bdb402c5
bd90410b
3cc05b3f
3da967a0
3ca14169
bdb6535d
ba303c34
bd9e87c8
3d4c581b
bdaf7455
bd945d1f
3d41cc3e
3b6ce4c0
3d3c1970
3d93413a
3bcf9438
bc9410dd
bc9ddfc4
bd4e898e
ba2a92e1
bcf4ce46
3bdd63c9
3d94735a
bbf4048a
bd38d3bd
3d91250e
3cb5e589
bd3b8c04
bc91d5be
3d1e6a06
3da6572d
ba929d00
bdba2a52
bd9d5e92
3da17c9c
3cfd8615
3da320e7
bd8349ba
3c80f659
bd817f6b
3dc214f6
bcc3b58c
3da01337
bca2ae4c
bd470d1c
bb173c7c
bd95bc3d
3d35200e
bd252fc4
bd8ba6ed
3cc66f4f
3d775c5e
3c764dcd
bdaad75f
3d204900
bbd74cf0
bce24e96
bd7fd437
bc99ad0f
3cc070d3
bd0ee01d
bd00d5b4
bd980cfc
bc1c2379
3d44948b
bd9c923b
bdb5d964
bc8a2ad9
bd5423e3
3d6ebd8b
3cd783e8
bd20a00a
bd89197a
3d7b5625
3d38b429
3db522b4
3c006e40
3c07f0e0
bd1b3478
3ce6bd57
3cbaddc0
3d4dbb33
3da588dd
bd0467c8
3d73eddf
bd9039d5
bd673c03
3be43788
3dacb6b5
bd9cf50b
3d236167
3d0314cc
bd9280e9
bc2fc82c
3c9ec13e
3d828340
3d275dc3
bd5f8fa1
bdaeb6d0
3c35f228
bcacabce
3cc3f30b
bda5421c
bab6a69c
bdb1905e
bd9fe92a
bd4258dd
3d99ddeb
bcf803bc
3da9f82d
3d86ecea
bd922442
3cc5fedf
3d43fc66
3c21d312
bdb48eab
3d311b63
bdaf986a
3cff6108
bd8c9b49
bcc0ae53
3b90cf31
3cf2d406
bcc9c133
bd9762b1
bd432aaa
3db328e4
3c4cd3c8
bd58e6a4
bd392e6d
3d8d783f
3d0977db
3d2f0353
3d9a093e
bccedb03
3cca167a
3d0efb25
3db43ac9
3d08bc85
3bd553ca
3dae9860
3cf3cf40
3bc0615c
bce385d4
3d455cfc
3c1a323d
bd551ce5
3db31b9a
bd57d5bf
bd474fb7
bd739f55
bd68f83a
bd8e5527
bcfc1d30
3b0e917c
3d3a06e7
bd7e5b48
bdc6faf7
bd31ea48
3aaf76c0
bd509e09
bda36602
3c9f0480
3dd197a0
3dab9cc1
bd639148
3cfb0f2b
bd4993e5
3d326c80
bda4858b
3cd14743
3cdb58ae
3d86e7a5
3d64358b
3d614ee0
bcea597a
bd8f1780
3db7bc47
3da1ed78
3d475e37
3da89930
3db8b49d
bd91e0e8
bd88f422
3cb7cac4
3d91918a
bb32a055
3cbde895
3d2440ec
3c950410
bbe0f7ce
3c47e8a1
bc29af62
bdc58cc7
bdaac59a
3c418856
bd355896
3ca30978
bd98f922
3d6364ff
3d17feb3
3cf354f2
3dce2470
bbecab4b
3d667c6c
bc413720
3d9a49d8
bd8376d6
bd3c636e
bd954f14
3cbf8e70
3c71ef38
bcc7b62a
3dba1ea9
bca26359
bda4f76a
bdc0dfe9
bcec7ba4
bca82fbc
bc1c5126
3dd415ac
3ceaa51d
3d8dea55
3d4bf510
3d122fdd
3d3018cd
3d86fb98
bc5826f7
bd9090ce
3bcb7584
bd529f96
3c6c8b9d
bcd5057f
bd4da814
3b021cb6
bd44cd23
3d8a2663
3d42f5cc
bcfa7c5f
3ac0aa2a
3d75c086
3d0f8855
3d8ac149
3c8f52dd
bd806757
3d9fcc64
bd689e6a
bda38467
bd0bea41
bd93fc6c
bcdeb0a8
bd427559
3c204f8a
3d482ddb
3db7887f
bc14f3e6
bceda743
bda9d763
3d15dba7
3cecc658
bcaa5526
3dbe64e7
3da8781f
3bfd1665
bd927187
3dc391de
3d0472dd
3d0e19a8
3da0d4c2
bd90ce5f
3d3a3df3
3dd7a043
3d47f1fa
bcdc4e51
bc699a1d
bd72b9bf
3cc60a9c
bd0d6663
3d8334e5
3c255dc5
bc48fd76
3db83b72
3d595d6f
3c7fd417
bd1732d8
3da4e99d
bd935c93
3d86ff04
bc3a2898
bd8f2c3e
bb4d0c80
3db7864e
3cc71b7d
bd33ea01
3d96f442
bd966fa7
bd83c9dd
3ad7c54d
3da24184
bda183c6
bd31f1c4
bd0d3375
3c99bcba
bdae64f6
bd39149e
bcfb4d95
bdaa7338
bce931df
bae22285
bcb46239
3d509090
3db1faf0
3d8f3c86
3b160538
bd350ed7
bd6c7a0e
3d16d437
bd7b833d
3d83bee9
bda6df36
bd83fae5
bd3e9c30
3bcc7b85
3d299e1c
3d4b2a24
bc3076ba
3d489432
bdc261de
3d8f1a90
bd9e862d
3db875a3
3d1f09de
bd0379c0
bd536447
3d3d6ef6
bc8ac8b7
bdb06c0d
3c9e2250
3ca22083
3c7b1d4f
bd8840d6
3aec953c
bd4a6395
3dbb04ae
3c0c8c6b
3dc31e02
3d83ecfb
b843d596
bd9eaf26
bd8e1589
bc6403f6
3dbcf828
3ce054ce
bd2ce8df
bcfbf980
3d8f9c7e
bd306c04
bd60d6a3
bd665d6d
bce9b5fe
bccaef07
bd669ea9
bd278398
bb571c49
bd9b619a
3db2d111
3d8eddff
3db486b7
3b0371bf
3dc6e474
3d72545f
3d966d00
bda7decc
bb4c5d0b
3d9e6532
3d354dc7
3c461ef6
baf17ff2
bd99d14f
3d68f0ee
bdada05c
bcac29f0
bd9cc6bc
3ca1a2d9
bd184ff2
bc9fb3f2
3d180bd4
3dabc0ac
bd968e61
bdaff0cf
bdb450fc
bcb7f636
bccb8255
bcfa6ffe
3d6f5d18
bc1f833e
bcc8b26c
3d400910
3d461b83
bdbbc94b
bc3a6e30
bd5649c4
bd8328ee
bd54a781
bc868617
bd122ffe
bd8e9ef3
bda6ae5b
bd66aaf2
3c468f9e
bd31a6f4
bd32f4fd
3cca0df1
3db8cb48
bd953c03
bd01deae
3d9630be
3d8158f6
3d9b8772
bd80e5cb
3d564134
bcdd4d52
bdbe7330
bc058ea0
bd111d5a
bc4020da
3d8c09a8
bd26c743
3c75880c
bd3ef914
bd8a2c5d
3d4ecc19
3da39c22
3dab75cd
3d56cd88
bca6a10c
bd099583
bc51d01b
bdc454bf
3da3055c
3c26fbd7
bcb220d8
bd4690d5
3d32e537
bccec00b
3be5df3d
3d627aec
3d4f1958
bcd32b8d
393fb973
bd3f312d
bd3db4c4
3dc62541
3cf1e900
3c10e9dd
3daf2257
3d894c9a
bd7b2ddd
bcc6ba05
bd3c108e
3b27ad80
3d30d468
3dba530a
bd8df1d3
bcdce467
3daaf19e
bdb427d0
bcc4d403
bdaee340
bdad8576
bdb1cc00
bd40c0e2
3d63fbda
3da377e3
3cddad2c
bd9988ae
bd090d38
bcc79d33
3d93d4f2
bd37c730
bd891894
bc1d1d9b
3d127030
3d841b1e
3c07d1c4
bd229c78
3da83ab2
bd1899e2
bd5f2366
bd1715c1
bd97b591
3ca4f988
bc25d694
3db64356
3d0b6e73
3dcb334b
bd2712c0
3d27cefb
bd8dc4d9
3c8c26f2
3d611152
3db37c61
bd696686
bc4ca5af
3d202507
bd92b241
bd9f9e25
bce94fdb
bd5ad61c
bd3f6d5f
bce58ffd
3cf014ff
bd01ef32
3dafece3
bd92a8d2
bd61a113
bda1d855
bcea88a9
bd640ce3
3c530297
3bed56a5
bd3234e1
3da65408
3c341e3a
3ce6f6b8
3d9b0692
bd5d53c5
bc48eb22
bd865da2
3ccda177
bd9b1fd2
bc4111fa
bd6e3e35
3d9e7a40
bbdc80da
3d8c7789
bb6997d8
3ce20624
3d0bb09e
bce78e5e
bc666d8e
3cd165d3
3d808afb
3da708d2
3d40b020
bd15c7bc
3d186dd0
bd0be476
3d84c776
bda27d44
bc9f2d66
bd4eb8e9
bd8e4985
bd24624c
bd7c1e2e
3dbc874a
3d069e6e
bd769d5b
3d1c8cac
bdaac5e7
bca12a41
bd77803d
3ceabad1
3d2c6ece
3ce6075b
bd08db3d
bd7dcaad
3cbf8af2
bd5bad47
3d783988
3d6281a9
3db555e8
bd766c56
bdacfc87
bd3ada0d
3d24ee3e
bc05ad10
3da30643
3ca2b283
3d11c9ad
bcf7f1e7
bc545294
bd99cfe0
bd915cdd
3d672a16
3c7b09f7
3b8b19e9
3ccc121f
bdb65456
bce5732c
3d838cd9
3dccb2ac
bdc3ed6a
3bd647af
3cd8eeba
bdb6dd1c
3d2796e2
bd2fe282
3d250272
bd4485cc
3d297302
3daa3af5
3c770faf
bcf7e1f3
bd005276
bbb8a519
bd1fbba5
bd90e0fc
bd850e45
3d9e4075
3d813a14
3d4425e7
bcbbf804
bdb631d1
3db591d3
3d7b7ef8
bc73a6c8
bce6414f
3d2e9198
3d1aab48
3c4cdbfc
3d63fd3c
bd998aa3
bd6a7a0e
3c3c2e49
bdab8aa5
3d76b39a
3d924c10
bcae04da
3dc0a7d8
bb32e160
baf01b11
bd9b4861
bd6bbbf6
bcbe8b05
3d5cb396
bd01cc59
3d946bdf
bc987bec
3d505910
3c064f5d
bc80dfc1
bb442e74
3c006338
bbd8067a
3d21fb6f
3d71ad60
bcfdc7a9
3cffcfd1
3cd9f3bf
bd93461c
bcebbb0e
bd96b2e9
bd182249
3cca9604
bcf41409
3cdd748c
3d805054
3d7c2a54
bc325fdd
3d3c55c3
3da34404
3caaec53
bd93f4bc
3dc4478e
3d8bb13a
3d3f1afa
bda82343
3d25b480
3c83eecb
bd7cc833
3b87d820
bdabd650
3d35bc50
bbf1be30
bcecd29c
3cb93cd2
bc7c3948
bd1034d8
bd6a4b35
3d3da646
bc3e6d45
bd7ee092
3d3a8503
3d85218f
bce50c2d
bd253fe7
bd89a4e1
bdb03e39
bcfd0fa2
3da36960
bd85dc1b
bda30a89
3db7dabf
bd05b176
3da32eef
bcdc8848
3dc5c001
3d814d75
bc5b7fd6
bdb6ba38
bc5ce9b6
3d63ad1f
3dbea822
bdabe09a
3d2d892d
3d7c1f8b
bd00a69f
bc49f843
3d9641da
3c087b9d
3d035550
3d1d49b9
3d94af56
3d3e21a0
bd95d5ac
bdbfb1b1
3d5eda50
bb2b43d9
3d4e308b
bd8c7d69
bda3e38e
3d85aed0
3db367e1
3d408e50
bb82e512
bd28229a
bd09d291
3c372c10
bdc0f658
bdab6e4f
3d297867
bd36cc9b
3db1eb73
3d998329
bd1d8beb
3c98e869
bd999fa7
bc9fbf84
b9f0d6e8
bd3475d9
bdb9d8d1
3c89587a
bc88ca7c
3c96b9f0
bbbed899
3da54d42
3cd2ce6d
bd915800
bb5a7a08
bc9756ef
bd3ae774
bc4ee5d6
3d470992
bce99eee
3d18caee
3dc4ec77
3d094306
3bf62600
3dac5de4
3db3b5d2
3d0daa20
3d80c012
3dbdfb4d
bd08a8b5
3c2a4607
bd495360
bc3e53bd
3d27db58
3ce172bc
bcad5e12
3c64ad1a
3c50d649
3d8e02fe
bd6f7591
bd9dfe1b
bd5b5129
bdac8634
3dc3e7cc
bda5bc55
3d9dab06
3d1aace8
bd67cf8d
3d50f8a0
bc71f146
3d303289
bdac938d
3cb62d97
3b983ca9
bcfccdb4
3d4ea456
3d7c301e
bdae161a
3db6f1fc
bd73917b
3d29de16
3ca74372
bdb45a08
bd8e19b9
3db6fa40
3c78a773
3db752f1
3c3e5da8
bd1e5ad4
bd8fc308
bdb45324
bd401b9c
bd5d67d4
bd8dc5a0
bd61d23d
3d8283c6
3d6b1637
3cdaa2c0
bb8d2472
bd9aab5c
3bda5566
3bd67f39
3da0d8d9
bca5eaf4
bdc06de3
bd71c017
3d3fd9ae
bc70bc28
bda15e4b
bd6280bc
3d9b5338
3ce12361
bd9f6f1e
3d6d3a14
3bcb059b
3d26de16
bd1e0270
bd79d03e
bb7fd14e
bbdfc500
bd2467eb
bdbd8f66
3ca397a8
3aa340e1
3dc11a3b
3d89b9a3
bd8c55a1
3b5c1dee
3d9e153b
bd621cef
bc3d5158
ba68174c
bcac9c62
bc88030f
3d59c733
3dbf2fed
3dc17012
3a6f694f
3d1d11cb
3d840e09
bbeb7de6
3db7f2de
3d5261b1
bc527851
3d87cfa1
bc929e8c
3db4b5e3
bd707a7d
bcff82ac
bda64d30
3d0ba6d4
3c045e30
b9f52daa
bd5cdf53
bda04a61
3d74a9de
bdb7a314
3d76652a
3dcdd364
bcbc5572
3b2fdb0b
bdc31aac
3d369710
bd9baaad
3c6fe6b2
3cef6e41
bcf89589
3daf4b0c
3d1446e1
bce20561
3ca246df
3be54300
bd574aaa
bd8bd1c2
3d914379
3cfe9feb
3d6569d3
bbc31a42
bdb8bc85
3d0994c3
bdbdc42f
3d5694b3
3d371b6a
bd472126
3d9dacc1
bd802e62
3d676b5f
3d233e0e
bd856ab5
3c8e749a
bc85abd3
bd9f41d3
3ce18cfa
3c830914
3db6d5a6
bc052296
bb5a3adf
bb0e017f
3da5db0a
3dbdab45
bdbecede
bd5a4d8f
3d48ed9d
bda6c788
3d804b71
3d744694
bd1967d4
3c91edb6
3daf441e
3cf278d8
3c220600
bd5f0473
3c9057f0
bd61b7e6
3ced80d0
bdab9eb3
3d569554
bd3c6564
3d105ec0
bd61d8ac
3d92309a
bd9c65a8
bcedb20c
bd0000ce
bd267c58
bd796b75
3d4b84a0
bd980d3d
3d1d523c
3b95c050
3ca0dfdc
bd90e16f
3ad0a840
3d951448
3caabdac
bd92989e
bda28c82
bd4a70ff
bda9c9e6
3d946aea
3b01d580
3ce6a4c0
bd7cc74f
bd997a1c
bc316bd8
bdb0d2f2
bd48506e
3d9583fc
3db02548
bd9bf82c
3d96f970
bc9f5bb0
bcf9d138
bd8bc096
bd6318df
bcd6d168
bd9e25aa
3d38f3f8
bdc39c68
3da8c79c
3d8a592a
3cb7f210
3d493f28
bd86253c
3daf754a
3c8fc700
bda676b4
bd9c825a
bda51c6c
bc720628
bc8d2ef8
3cf82620
bda6e60c
3d706f5c
3c6f9902
3db1cff0
3d6926e8
3d10b9d8
3d93eafa
3d4b1260
3d82e461
3d56b260
3cff18b9
bdad6f9a
bc835d51
bdb2552d
bcfe02c6
3dc65646
bd45931d
3b9e9982
bb7735df
3bb3dafc
bd5335d8
3d6afb0f
3c98bf0b
3d9d92df
bd8aea81
3cceebf6
bc9deb5e
bd9cac0f
bdbd6ce9
3b250ed6
3baa52a7
bdb67905
3d6f8e79
3d952d5c
3d5d09d9
3d0cedc4
bc0d9346
3a3e557c
b790627f
3c811b6f
3d584ab5
bd7622fa
bd75d3e8
bdc76356
3cc79be0
3c4588d0
3cdecc01
3cfb49a5
bd55e279
bca9b674
bd86a6a8
3bd10278
bca21abf
3b3f18f4
3a997c72
3cd65531
3d90a7f4
3d6a5e5d
3da92ade
3d888bf8
bd95dce5
bdb0d4b6
bccef30b
bccc62f2
bd8aed96
3c375804
3c23d8b2
3d07f95c
3dbd2a96
3bc425fa
3dc9139b
bc1a10d0
bd6ea3de
bcb908fe
bd971da9
bd75ad4e
bd990737
bd2fe2e2
bd3fd683
3cfbd2e7
bda98ed0
3dba491b
3dce1b6e
3dcf273c
3c89fac8
3c8d6282
bd96a7ac
3d3dbc93
bd98eb09
3d935d89
bd8e1952
3cf42870
bd7871be
3ba8c522
bd82d690
3d81e693
bda0df75
3c71d255
3d06e91a
3d89ddd7
bc56013c
bdc453f9
bd788007
bd9c1f49
bd145ac1
3d2be31f
ba500fa5
3db96af7
3dbf4178
3d018bea
bc0b5634
3cefc5f6
3d79654c
bd31ecf3
3d8b5e84
3da5cfc7
bcf754ee
bd5c46f3
bda1989e
bdc04768
3d6ff775
3d9e1749
bd799dc1
3d311231
bca31ae0
3d0820c9
bd25ea0d
3cd7fd8f
3d8d86e5
3c924a11
3d896090
bd93dc76
3d43a2a8
3d692fb1
3c2fbfaf
3d7a734c
3d721212
bd9d8334
bc17e5f4
bd3f6668
bd9d9b95
3d12e179
bca69b93
bc704ef4
3db797d3
bd62c0fd
3d7d0ea2
3c7016bf
3d7f5760
bd8cc89e
bdc79b83
3d280d13
bdba56a8
bdbbecdd
bdaa995c
bd2fb379
3c6271c6
bd7665bc
bd865c3e
bd1bcc44
3d980e32
bd95f93b
3d8ad40e
3a669c38
bdbd7001
3d7f3f06
bd9c5656
bdae4eee
bd874df1
3d71d178
3bb4509c
3d69920d
bd69cba9
bdcc4824
bd8dfd31
bb6e240c
3d90bc69
bc9b5fd4
3c66e070
3cb9f831
bb5c9655
3dd4507f
3d754356
3dc22be3
bdbac55d
bd619e36
bd44ea11
ba768034
3da92a5e
bd4ec317
bd9697c8
3d162bc2
bd416b3a
3cd31276
bd3f34e4
bcfc91f3
bceb0ff4
bd3af02e
3c322a94
bca24388
3da38982
3dc0fc7c
bd1ba197
bd027c33
3d9f702a
bd43c12a
3cacfa52
bc10825d
bd94aa6b
3b9295e3
3db2c307
bda5b79a
bb981a75
3d71f18a
3d02d730
bda2bc12
3c64fb9f
3d4ba726
bd5ce5a6
3d866f0a
bd5240c9
3d7bdc2c
3d93f376
3be7af54
3dd04624
3d11c5ef
3da9735b
bc217d41
3d3c3ec3
bcd0e07f
3dabe16d
3d8b58cb
3dc89ffd
3dcb378e
bdb723ed
3dc9814a
3dbfa389
3d8e2a75
3d87426d
3c355160
b9aa1608
3cb9d3a8
bd789a2c
3caeecf8
3dbe180f
bd6e56ca
3c21e62c
3da8ea2d
bb23ae9b
3d81aec7
3d8e8c02
bd0ac5e0
bc0c7789
bd14e2c8
3dc5a03e
3d868e93
bca28dc3
3dd2bf26
bd5134c4
3dd023c0
bd222afe
bc520326
bd3083c9
bd3a44ae
3ca64c55
bdb975f1
bd8817ed
bd8b0df8
bc40556e
bcae802b
bd8a9e79
3ca568a6
3dbd3be9
3cfd11ce
3cc03b93
3d032410
bd1cd217
3dafb7e5
3db6947a
bd9ef08a
3cb4e75f
bd09a1cd
bca28614
bdaa70fc
3d711d0b
3dbaa7a2
3d5582d7
3dc025df
3daf39e2
bc778bb5
3bb44573
bd25e22a
bdbc4ac6
3d9ae5f9
bdb2efa7
3b61d971
3d8eff4b
3d55ae04
3d23f072
3cf46a14
bb217a92
bc5ee336
3d07ea42
bdce3a7d
3cc03bad
bdbf7f64
3dab9a16
3da0abeb
3d9a4e1b
3dc3cbcc
bb8c84cb
3d2118eb
bc90a288
3da0478e
3d529c59
bdb41aeb
3db293de
3bd5c166
bd89ca0d
3d2d6de6
bcef222f
bda36467
bd140eb6
bcbb7bea
bd0a72fa
3d8040d8
bd8f6e4b
b9ac3100
bd729d26
3d9f297e
3dc439b8
3dbfd798
bd96637d
bb36cdf0
3daeb3b5
bd9495e8
3d5e17c7
3dc3dbd8
3d939f53
3d73de66
3b6320ec
3d21e2d7
3c1ccd01
bdb482e6
bd906e32
3d989e1f
3da37606
bdab955b
3d4652b0
3dc385d7
bd908e4b
3b425f78
3d942921
bd048303
bb80e6e7
bd88925f
3da57f2a
bdaf3052
bcbf025a
3d028797
3dbfed99
3d0bc30c
bd500d33
bd5c9260
3d656689
bd5b6b55
392c7511
bdab8238
bace1b01
3cd33c18
3daf67fc
3d541a4e
3d90dfcb
3d9f7267
3da9f1a1
bdbfd3de
bdbd3ee7
bd34ebf6
bd5daaf5
3d1e0cd1
3ca28117
3dca7def
3dbea636
3c71fa95
bcbaf540
3d5220de
3d56737b
bc94743d
3d7d93f8
bd882544
3d56b885
bd9688ff
bd5c8947
bd318db0
bd116d43
3d9cb0b9
bd5a4a45
3db23053
bca96a7d
3dafe93d
3d051680
3d930199
3c9fbbb5
3c8cf22a
bd9af92d
3daa3ff1
bcf69cdf
3d21bc1c
3dc3069b
bd9bdda8
bdb0addd
3dc53a8c
3d86e063
3ca66bba
bd839d29
bd82086e
bcfcc7c8
bda95425
bd92bd2a
3cb14c88
3d00042f
bdcfa2e8
3cda400a
bc24d2df
3d11e695
bbb7a7c7
bbc5c290
bb706eee
bd6fa5fb
3d6a50df
bc82c40e
3db1ea60
3d1f1cfa
bcd42920
3d33383c
bcb51b00
3c5111e0
3b8fabb7
bcde68f6
bc9d10ac
3c39ad59
3b2169db
3ce946cb
bd43529a
bd903339
3d8cf162
bcedc87d
3dc65c9d
3b1b6382
bd3b60ff
3d6df57a
3d1ea695
bcb94f4c
3dadea5b
bb74c7ad
bbc225d0
3d2d784f
3d4bf08b
bcf19545
3d4ba42c
3d89c8a2
3cac3c87
3d22ef64
bc40cf60
bda07e5e
3d3ab1c1
bd85ab93
b9411c0b
3c3f73f8
bd92654f
3b915108
ba1c06a5
bd8e51fc
bc9e29d3
3ac1241e
bdba7e4e
bdaf2818
3c1788ca
3c871677
bc84b4c0
bcb53d1c
bd74829a
3d96f17f
3d5fbccc
3d3317aa
bd59c67a
bc020e9e
3d99c263
3d55983b
bb878105
3d20cb3f
3cdda031
bd064991
bcbf4b22
bd2db405
bda11bb1
3d3eb967
bd5cfac2
bd286de7
bb97039e
bbd730c7
3d725c90
3b8a1ff5
bd28f99e
3d044467
3d94e579
bd8de153
bc69552e
bd424ad0
bd2bc712
bc8a1fe2
3cd5673a
3dc5d736
bd8475d2
3c356391
3bcff795
bc825ca0
bd9b5cac
3cfa2bed
3d77afe0
bd838471
3d040344
bd141b61
bc15bc9c
3d49949a
3d841173
bcf303d8
3d42336c
3dc4a4df
3d46945e
3d0e8510
bda08c84
3dc14ab8
3d4d869a
3d657d6f
bdbca5b5
3dc3a480
bdb49cfc
3d36f0a4
bd5934c9
3d9b269a
3da5fa75
3d37e90d
3da661c4
3d38ac49
bd273f0e
3cb7fbaf
3bd83322
bb7d043f
3d92b55a
3d3c4619
3cc5f572
3db4afaf
bda42c5b
bb982e55
bac8dc00
bd7068ce
3beb0df8
bc4e4839
bd4a95bd
bd87213d
3d615e60
bd165731
bd4d7de2
3d9f5ea2
bd1b8bf6
bdb5d56d
bd58db1f
bdbe4d88
3d1c68ca
bd4df509
3d91b86a
3d45aab4
3d4bef28
bd662ca9
3d3dc0cf
bcaee843
bda257e6
3d5ca8b4
bd2051b7
3d8a88ca
3c0a1efb
3db6668f
bd1bd26c
3c0f434f
bd825677
3d4b54c6
3d661643
bc9cfd36
3cdce826
bd68ec1e
bd614b26
3d2db099
bd33b1a6
bd4a7b80
bd380ace
3dc8ee92
3d9f1d9e
bd2c3bc6
bbd72618
3a61d917
3d9183f7
3c6f1496
3c523468
bd707759
3cbbd76e
3d9229e0
3d3729a0
3d0795ec
3c8eb01b
3d883d7f
bd8ed404
bd2dacfb
3d67e3ce
3d9f63d4
baddeb60
3d70558c
3dd0f156
3d4141af
3dc1ab11
3c60d516
bcc3e872
3cfd62be
3c25e6fe
3bd5827a
3da617ac
bda86264
3b8f4c03
bd3a95ab
3b413086
3bdb3a5f
bc3f44d3
3c6e266c
bcdcb725
3da7131c
bd90d399
bdb0b63f
3c27bc62
3d6dbaf4
3c1decaa
bc14dc27
b8d7cde6
3be57d30
bcf493a4
3cdf11d4
3d12632d
bccb8628
bd3e0afd
bc8a2305
3d0a85e4
bdaad95d
bc431846
3d7787b0
bc3fa53a
3ccc9422
bdaa5f1b
bd761a86
3d8f72b9
3b611d89
bc7ead6b
bd34cca9
3d2b8efe
bd56447c
3c935072
3d23002e
bcb165e7
3dae0007
bcd92520
3d92086d
3d870f54
3db139a7
3d75cf16
bd802d3a
3d7a6641
3d2c3701
3cb32fd4
3c80174f
3d1ebd54
bda29209
3d735724
bda074c1
bb900ec6
3dbf7dc0
3d6e166f
3d5be38e
3d57c3d5
bd8523af
3d31eff6
bc940ef2
bdb986c5
bd214a06
3d2ce0d5
bd3b9d2d
3bd34d6e
bda1d116
3d61cf78
bcd9555a
bceb9e27
3d253d8d
bd8676f2
bd1fbf22
3da5ccf0
3d97864d
3c3ab91d
3da98154
bd864cfd
3dbb4285
3d02704e
3c8382bc
bd00e938
3da66008
bd7feb7c
3bf843b7
3da60bd0
3dc2ae5f
bdb22912
bd8959fb
bd23cb9d
3dc2b4f9
bd320420
3c985279
3d66113b
bd9166b1
bcbb9454
bd0e3fa4
bd5a476e
3dad90ff
bd238aee
3d7591f1
3d6d3f8f
3d6ffa01
bc62fea0
3d44593c
3d971414
bd20e3d5
bcb475a2
3d99f8d4
bd91bf4b
3d815d9e
bd6d89f1
bd766fe7
3cd97407
bcbf2b03
3d716a8e
bda0d3ae
bd30e6aa
3c6cb591
bd96d074
bdacbc55
bc4a1b60
3d5c6f29
3dc321f7
3d1d5e7f
3d783dac
bd104d82
3d4cbd00
bcecb8e8
3d4e6726
3cbb6459
bda38481
3be7b8ba
3d768704
3cf097f3
3c88995c
bd96bedd
bd4991ef
bdb93173
bcce163c
3dbe38ec
3d00c024
bcfe8b3f
3baff924
bd3e9763
bb386c6d
3da371be
bd26dd3e
3d423e55
3c08794f
3daba604
bd1da89e
bd2a2540
3d938dee
bd9acc4e
3d8d95d1
bd1a6704
bccb91cf
bd4c27e3
3ca29e87
3d7c2ed0
bdb4f42f
bcfece54
bcaf64f7
3d6f03e2
bca6b3d0
bd0ee0e8
bbfdc6c0
bcfdfb0e
bd19f003
ba3ed92e
bd489aa7
3dab03c2
3da5eeb0
bda809c0
3cce9e74
3c4bb808
3d32c786
3c182de9
3d7b680e
bd6016d9
3d5262cd
bb0424fa
bd0e3687
bd9dc78b
bd065da7
bd2c0cff
bd0948ad
3d9515d5
bcc6fedc
bd8ff1ac
3c4ed9a0
bd2aefa0
bd630b9e
3da8db83
3b4d06d5
3c84ff2c
bd01bc2d
bdaca9c1
bd85e88a
3d6610b2
3d613190
3d980984
3d33ac94
bd829f04
3cee8958
3b8cb21d
bd9edc39
3dbc8374
3d5f10d7
bd091b99
bd6c6253
3c096eb0
3d82bfbd
3da6db8e
bd48bfa6
bdad7f7c
3d8520bd
3d97b205
3d401f78
3d928324
3db6fb0b
bcf06840
3ab98653
3cdee322
bdbd4f71
bd75114d
3d5ba1b6
3da31989
3cecfe58
bcf63caa
3db171e6
bb190911
3cd4d1a6
bd201707
bd9c3512
3cbfd999
bccfcfd9
3c73fa5b
bb2faa69
3d4cc603
3d679cff
3d3daab3
bd4e9b68
3d03f8b0
3cd539c2
bccda11e
bd4565a7
bd937f4d
bd7abebe
3d15a2b9
3dc06b5d
bda6cf92
bdaeb1f8
3ae9c0c0
3d95b321
bdb79bed
3db18846
bc2e02e7
3d36d987
bd1af2d3
3dc4bf1e
bdc9c746
3d00d335
bcd76a0c
3cc7500b
bd0b60f9
3c54f2bf
3d901322
bd80ecd3
3dc6f1c9
bca63439
bd6205f0
3ccb0265
3daedcdb
3dc356f6
3cf08a0c
3d5c3173
bc787dae
bd9b3cc7
3d9b8be4
bd24e5d8
3dc38994
3da570db
bd985781
bdb70f11
b96d9ec3
3d220cea
bd0faa25
3daa9558
bdccdbfa
bcb2f094
bcd2f2de
3d917577
bdaa509d
3cde63b0
bd9fa439
3bbf5676
bd3eccb2
bdada320
3dcbb938
3d8045ba
bdc094ed
bca95f49
3d0a6283
bcea84b3
3d458705
3d9cb144
bd903534
bcde1545
3d6e82ab
3d1eb2a1
bd8a86a0
bdc2fc33
3d78c573
bdcf5479
bd5beeca
bc0b4ba0
3d38d9d4
3d412907
3cd873d1
bc38c778
3dbe87c5
3d0f9a25
bd468ef5
bd1ce1f9
3dc461d8
3d3494cc
3d247cf7
3cd1c666
bc568bc7
3d8a7c8e
bb72c3a4
3cec8a72
3dc26502
bd047f81
bd0d13ef
3d9bff38
bcb4816f
bd120fd7
3d11937c
bd2f90ea
bd8dad52
bb96c41b
bdb253a5
3a443d52
bc1f0472
3d90505c
3b886bd8
bd2d1407
3d9f8a78
bd885fb6
bdbdcd0e
3dab3399
bd83730a
bcae588b
bd73acea
3d87434e
bd8dea6f
bcf704e8
bd225e09
bd6d1009
bce72435
3d29d8a8
3d923473
bd6399c1
bd86e6ae
bdaf2695
bd5812d6
3d11175f
3d42301b
bda25e06
bd9857dc
bd50c2f0
bd7f42e4
3d0a0b39
3d833440
bda62b51
bdbcfd94
bdb7dbd0
3c909258
3dbffd1e
3da53ce8
3d3f4b23
bce5397d
3d8293e2
bb7bb350
3ce27c33
bd95ef01
bcc6cc7d
bdb04984
bd953c17
3d349876
3d1ee37a
3d2b1ad8
bc3a7730
3d88adf7
3d5443a1
bbd1bda2
3dac3605
bda454c8
398bd7ba
3bd13436
bdbcfa2a
bd9cb2cd
bc630376
bab41098
3d4fa885
3c00b373
ba613cd4
3dc31466
bd112d48
bc1361ec
3dae549b
3da2b4ca
bd8d1bad
3dc2ae7b
bd2b6db4
bc2c2343
bcc082f2
3d5f0515
3cc1965b
3db2f24c
bdbe19b5
3ca10494
bda87299
bd71db81
3d521e6b
bd788515
3d16db69
bc907503
bd7cf0b7
bc6f852a
3c55fb4e
bdc4a6bb
bd0daed5
3da7d1fc
3d193499
bd713038
3daabd2a
3d9188d7
bbc2c056
bd8c5001
3db533b9
bdaf3d5d
3bfb5140
bda20e43
bdb0eeeb
3c8d7e45
3d369fa1
3cbc069e
3cece5e7
bd016756
3caad353
bd6ba104
bdb7fb6f
bcade49a
bdbf3f44
bd99b0ee
bd745122
bd793541
3dd03410
b9fd2eba
3c8d6062
bd93b7e8
3db1dfe5
3d0a78ce
bdbdabbd
bc4ac3e7
3c9c65b2
3d062c0c
3d2c0bcf
3cae255a
bd8613d0
bd44e7cd
bd8fe1e1
3ae20f3e
bc0517b7
bd9dff2f
bc87a945
bd63c1fb
3dad0328
bd3d4425
bc00d80d
bb156bf5
bd8ad589
3da475c8
3bfc76d0
bd6e1037
bdc08446
bd8b3384
bac57595
bce9bb42
bb57a47f
bc151ede
3da74d5c
3dab00af
bd98cd0e
bc6cc56d
3da6f53a
bd90c61d
3d00373d
3d93e136
3d815b83
bd2f453b
bdb2708f
3ca70281
3d1f4e74
bd680170
3d110240
bcdf70c4
3c5745ba
bd832c46
bd95c09c
3cd2c461
bd84be93
3c322544
bd81e104
3da892df
3d83e9ed
3dc9f7ce
3c0dd129
bd3de7bd
bdab135e
3da13c53
3dc3a1a5
3d984434
3dcceddd
3d8f1fd6
bccc616a
bd0fae99
3da57868
3c840a56
3dbddef7
3c1ee2ac
bd1ad314
3d658d9a
bd662548
bd2f3109
bd9091c1
3da805d4
bd5a65ea
3dd55908
bc033559
3d4f6208
3d1a6a80
3da47e6b
3cba72ed
bd7cdb67
3c84b410
3cb29b75
bd2e5cfb
bd853a25
3c6a2a15
3c94d4ea
bdaadab7
3c37a395
3bf7a0dc
bd567b98
3d997e9e
3cc20159
bd855bd3
3bebed35
3b6f2495
bd1e97bd
3d9ecb5b
bce212ac
3d46d960
3d8a1c1b
bd565384
bd809798
bdc732bd
bd79e69d
bd9d2fca
bda45d44
3d38ac52
3d17ed57
3db54d5a
bd212008
bcd00d22
bdb1f702
bd130c66
bd71e28b
bcc05324
bcb6a00b
3c1977ce
3cb858be
3d2ae697
3d18c329
bd4ca20b
bd8e38a8
3d1c350a
bd4be62f
3d16d557
3d829bc5
bdb07987
bd50660c
bc6e1163
3d862007
3db0ff0b
bb0e3e58
3d9ac46c
3c5dd206
bdb04c0e
3d6d0c73
bda672e2
bd02ec02
3d986420
3a8998c6
3d1cff8e
3d22ad15
bd5fa51e
3da44b90
bccb8e20
3c9007ee
3db42b50
3b196413
3da034b5
3b5e9b88
3d503e48
3c3e9c12
bd5d64e5
3d83c6cf
bd8e8fe5
bd489eff
bd85b6d4
3c819750
3ca46303
bda9cbce
3da630c6
bd52b933
3c510c59
3d132ab3
bdb3b2d3
3dae169f
bd501c4e
bda584b8
bd94918c
bdb5f81a
bd5c78a0
3d2fb4b7
bca884b4
3d75b2a2
3ccd4c9c
bd42686f
bdca7669
bd9fc826
3c3f4bc6
bd9ee977
bbdd656a
3cc9be19
bcce8fd6
bc7966a0
bba6549f
3dbbd5a0
3d5d4dcc
3d6cc274
3dd11972
bd993359
bd9ccaa2
ba951ccd
3dceef3c
3dbfda43
bc1f9f6e
3d7795ed
bc3bb79f
bc2993fd
bd2a317e
bdc44d99
bd554a2c
bd667443
3d780980
3d31f412
3d0e3855
bd7fffdb
bcd3c194
bbfc230c
3d50091d
3cf88aed
bd68a0aa
3c9b46f7
bdc0603a
bdad4737
bda92aea
3cd3a260
3ccdd522
bd83c114
3d213ff0
bda35f64
bd7b365a
bb96d721
bd92ffd1
bda1226c
3d857cb7
badb608f
bd24ba47
bd4a5dbf
3d88c931
3dc92eba
3b937b3a
3db0b9d6
3c84ef78
3d1016ec
3d96a624
3cce4965
bc1af243
3d865fcb
bc8e53d8
3d9342cd
bd7d5e17
3c48291f
bda58fad
bd85b712
bb962eb9
bdb174ae
3d6c0d7e
bb84ae64
bb694d78
3dcae8cb
bdb2b951
3d15fe60
3db4f310
bda4829e
3d9d1bb6
bdb48fa3
3dc18857
bcf99a33
3c2c9a67
3d3376a9
3da8929e
bdb048b9
3d2bcdfd
bd231af9
3d4004c7
bd5894a3
bd0d7f1b
bc939382
3c2a2d8e
bcdb5250
bc1f8760
bc9f8497
bcae82e3
bdaece72
bdb3e745
3d91d429
3d5521b5
bd5ebfba
bcf9a27c
3c67d9a8
bd3bd833
bdc2b777
bcd7f223
bd970cf2
bbbbc3d1
3d45eb30
bae3815b
3d00131b
bd1f17c0
bcee638d
3c3bcf38
3daea607
3da2f408
bd5895cb
bd331743
bd9864da
bdaa9703
3d1905e4
bdae2dd8
bda115bf
bd8af4db
bd935169
bc80f416
3c4ec7b0
3d9e9d7b
3da981f3
bd04f086
3ca5baf9
3d10d22c
3db3dc48
bc117b06
bd91f2ba
bd4c55a6
bd98ff04
bd6c605b
3d1cdbac
bd36ccf9
bdc34096
3c939a08
bdadf5d3
bd8daa5f
bd863de5
3c021bdd
3d5321f9
3d76a9d9
bd3d1160
3dacaf8f
3d31e987
3cbc2da0
bc9fa3e5
3d9236d7
bd0f46cd
3d6470d8
3d45dd27
3babddb5
bd29d327
bdc41972
bab1b939
3ce3a6dc
3ca7b386
bcbf6d1f
3dc95a02
bd13edfc
bdc50a6a
3d85f0d7
bd86faee
3d1011c2
3ade2454
3d3f4c8e
3da3eda0
bd2aa36e
bd82dd10
3d58d12a
3daa7544
3dbbd3e9
bcbdf065
3da4c784
3b88e51c
3d34c8f1
bdb20fc7
bd3700de
bd951a43
bb03f399
bd4995e6
3c9e7314
3ccaf5f4
3c9714ea
bd28ee7f
bca34dee
3cc7e678
bba39d35
3daab0d1
3dc3524e
bc23c3e3
3cdfe67a
bdbee723
bd6691a6
3d8cef47
3d8f7da5
3dc33d68
3c9ab100
bdaa860f
bb8abd00
3d6b5f49
bd6bb126
3dadcbf9
bd66ef8e
3c8d6303
bd3572e3
3d8e5131
bd9941c4
bd849782
3d13f9a5
bd589c62
3c91d9de
3d685f97
3d57078a
bd8e9659
3d6acc68
bd6bdc6d
3d10979e
bcdc05ad
bdb3dfae
bd476308
3cf3fcef
bc464d85
bba44db4
bd9d1d59
bdbe71e1
bcf804de
3d884c0a
3d053672
bd0d9769
3b98f14c
3d6745da
3d52d2c6
bc02706c
3d9511d2
3d8625cf
bd2d0dbb
3c94357c
bd012c46
3d4568f2
bd4e6dd8
3ceedc78
3cc63fac
3c5ae6db
3cc0a9d0
3d957edb
bd967e90
3d065e3a
3d56642e
3db87850
3d10008d
bd8ffae5
bdc028f3
3d7b85ed
bd731cd6
3d604a45
3d365510
3cead5a4
bbd5e59c
3d3cc437
3d6b6000
bdbe3996
bd21078b
bcdb2f64
3da2b009
3c23988f
bd437ea9
bc6bcf32
bc3c47c9
bd031171
bd408a6a
bd344d79
bd444bb1
bd0df6b5
3da092b7
3db33aff
3cd5d634
3d52f396
bbdd00c2
3b981479
3bcf9e69
3d6ad007
3d603062
bc20a9a0
3d5e4772
bdbcdd5e
3dbb22c3
3d9f6eab
3ca692c9
3d8ad257
3da31e60
bd560c7f
bd8d968c
bd17acc3
bbc90026
bc2b9d2a
3d36b4e3
3d6fb255
bd9def52
bd3461e9
3ad94ada
bca14b6e
bca4dc79
3d154fd0
3db94973
bd00b398
3bc369c0
bd545e33
3ba566ec
bdb3378e
3dbb353e
3d8d4bef
bc8f8386
3cba4245
3b37d7b6
bccb7b79
3c9d781c
3d04b6b9
3dbefcb5
bc9f0207
3db21a2b
3d7b1631
bcd054ea
bd8f243c
3cb64508
bc1d336c
bdc15399
3d341a28
3d0b9939
bd92aa76
3dba6dfe
3da5480e
3d313847
3d15f2d6
bcb32cbc
3dac0626
3d110edc
3dbdd391
3d6eaad3
3dc050fb
bc819983
bd5d49fa
3c9edcd8
3db1cd29
3d86fce2
3dc0f63f
3b813ec9
3d59a480
bd57358b
bd72712d
bd6f1b8e
3d815db9
3d9b6567
3dae13fb
3d3c6a70
3d02e63d
3db382d5
ba344b7f
bd3e8a23
3d9fa841
3dc5cad9
3d55854b
bd99dbe6
bd9ff5cf
3d653d7d
bd65f26b
3db5f1c0
bd55e4ae
bb4dd401
bba842c0
bd7a6c43
3cc526ba
bdbab058
3d753db1
bd98de08
3daf2d0f
3da44411
bb9cc241
3d09c44f
bd82b0b3
bcf6065f
3d8b6408
3d964904
bd87f933
bc577752
bd7b4362
3d429ab0
bd8aa306
bd8f3e19
bd5a07ab
bdb156a4
3d9eb36e
3dae0c58
bb8a1419
380af887
bd26d25c
3d29719e
3ad95991
bd86fbe9
3cbd40f2
3d5ace68
3d5d4771
bc660417
bd8ab4ee
bd6b032b
3d08bd41
bc2427bc
bd3a2b07
3c9f95b9
bd39ac34
bd8fcb1c
bd38db5b
3d777b79
bc8cd90f
3d9e8166
3cf0e92e
3c188934
bdc183af
3d8a48c6
3d90394c
3dc1e67a
bd8fc80a
3d5ea82f
3d609c37
bd8786c1
3b337c74
bd4a72d3
bdbebae8
bd82bca7
bd752466
3d4244e6
3d128bfa
3d7f28aa
bda56f06
bcb86fe0
3ce23206
bdba0705
bd57171a
bd6f3fb3
3cfbeac1
3ca9a445
bd87f516
3cced888
bc967bf1
3c5a028f
3da8e4c5
bc15b4a1
bd11e90f
3dacc6df
bd72935c
bd0ca07f
3d18f497
3d94f922
3cec0a71
bd7576bc
3d223d24
3cc699a0
bdbad341
3c8f78ee
3c46f236
3d9e34cc
bd2c3e13
3d65be15
bd5adacd
bd392b61
3d261c32
3d9e6533
bdc85ab6
3dc32c65
3c9a58c7
3cc164e3
bcd80234
3d16877c
3c1f0058
3c4df4d7
bdb4656e
3cce9711
3ce16d8b
bcbfdfa7
3cf19efa
bdaa44d9
3d828ac3
3cf6c6e0
bc88d66b
bc270aac
bd860b4f
bdb023aa
3c34b0ce
3d5c3ac3
bd914cea
3db56eca
bd8c71d3
bd69ae96
3d6feda0
bca543bc
3b1b8682
3c7d5eee
3d57bc48
bd5f3fff
bcd87ec2
3cfcc787
3bcf0ee5
bdc0615a
bcbd5500
3c8ff95f
bdb089af
bdaaf8c3
bdb342f9
bdbf877b
bd29c475
bd2ac777
3d886e8a
3bf6406c
3dc46791
3db1f289
bdb076a9
3dc4fe00
bd569a50
bd05818f
bc806294
3d89620e
bd378e20
3d38083c
3c9fc3e9
bd090979
bd10136e
3d6206e6
3c8b4594
3cd94fb1
bd76d4c6
3cbfa5e1
3d4fd9ae
bd4b2bce
bd66febc
3d88fe0d
bd3c7dfb
bd3b1306
3d865c23
3dc28973
bd1cd628
3d5da44a
3da0adb3
bda0ed99
3c5c5f5e
bc4449b4
3ce8f71f
bd7d95fa
bd58a362
3d24012d
3d8ad46e
bd7540ac
bd7e27b7
3db2a88d
bd23f781
bd4dc0df
3d3e525b
3d9a682b
3c3c3620
bd9be462
3d192a20
bdacc06e
bd6dfae1
bdb011b8
3d6cf03d
bd030e08
bd04a965
3d40b904
3d44120f
3d8a4d35
3d9945a2
3c4130f6
3d952285
bd4ea5f3
3dbf7708
3d4dcc15
3ad01dce
bca14c25
3d97ccb7
bd46b001
3dab6705
3c634c90
bda694be
3d8a18f5
3d2673d4
bd625787
3d951f74
bd80dccd
3dc5cc94
3d03626d
bd3ae283
bc090765
bda1d07c
3ccfa605
3d519194
bda238be
3d86f68a
bcde754b
bd04f6e2
3d772638
bc66482e
3d348819
bd05fb58
3d66ae22
bd342df3
3d787db7
3da611c4
bd202b4a
3c44bbb2
bd81be78
bd179127
3cb9e434
bc058708
3d0a1cf9
bc984594
bd586445
3dbe5da2
3d879fe7
3c50689b
3db344cd
bd31efac
bd93a50b
3b8cdcb6
bdb8b357
3c4f6437
3d5bdf32
bc3d7b30
39901c00
bc67f95b
bc0c1520
bc041965
3dc425d4
bd3ffa40
bb85f8fe
bd7b175d
3c1e9efd
bd0b938a
bdba5766
3d4aabe3
3d9742af
bd89667c
3d9e21d3
3dc473bf
bcb52150
3be570d8
bdb33baf
bc303bda
bd44f867
3d36bebc
3d21c7ef
bc2fbdda
bd6cc89f
3d7ae6e9
bc9f0096
bd84aa01
3d5a6299
3dc27f33
bbf1f1fc
3d71c06f
3d2a24ed
3d82437f
bd8ec8be
bd8aef09
3c69c0e7
3da62f55
3c21a67e
bd949725
bda9bddd
3cbddc0c
bd797c71
bd9786af
3da29f84
bd61ee57
3d6001d4
bc2f29dd
bc8a0eac
bdaa85fa
bd432750
bc085b6f
bd2db293
bcc8a29a
3dc51166
bd9c0b15
3c3f517a
bdbedd75
bd06c788
3d8595ba
3d327517
bd882899
3d94ab4c
3c6057b0
bca78418
3da79528
3d682b9a
bd92a6f4
3c502b65
bd1e9f1f
3c2ed8f2
bbe08b03
3d0b9947
bdab3b17
bd732fc2
bd9f0bfa
bdb58ce5
3dc472f5
ba9d2fe3
3d1fc61e
3d0d5eee
bdad89eb
bd3bd386
bd070748
bd4f1496
3dc3f850
3d6cc0b9
bd6d438b
3b830fe6
3d65200f
3bcbb069
3c5718c9
3dd30f7d
3dabdf2f
bd8c0d93
3db46801
bcbfbc97
3d8e93db
3da1140b
bc32cff5
3bfdd7cb
bbbce884
3d1d9651
bd95e9ac
bbcde635
3d309b2c
bd82a293
3d441967
3d5f9a36
bd854d0f
bcc84041
bd37ac0b
3d3e725f
3d5dbfd0
3c99987b
bc931d74
bdc15acb
bd82eeb6
bd54fc96
3d7b1e72
bc0a6fd3
3cf67852
bdc5bcda
3d90a72e
3d5f336e
bd416b7e
bb67631f
bd46e07f
bdb415c5
bd99d896
3d676eae
3d0cca3d
bd68c87f
3bd8d108
3d9d7469
bd8914f7
bd9d262e
bcaf2204
3dc0b72f
bc130317
3cd0e4f6
bcdb7356
bd1e8261
bd707de7
3d276e92
bc885787
3d7789b4
3c8e7e28
3cafd9cd
bd6ec955
bd96b5d7
3dabf554
bd794b73
3bb4abe1
bd9453d9
3d54e873
3d7eab48
3d0fc8c4
3dc62fb1
bd8e3b8e
3d26fda5
3dbee6ae
3a1c7b89
bda14c6d
3d8f3bb2
3db3d30a
3d8fa89c
3d4cbd40
bd9bcbe8
bc92119c
3d77b624
bc5de050
3b2999ab
3c417507
bc050262
3cf6f732
3dbdf745
bcdd9d05
bdb63bd7
bd8185cd
bb85c940
3ce585d3
3cffef35
3d817342
3d99dd3f
3d67fe1d
bc7433b3
3dada691
bc254363
3d95ae26
bd456651
3d8f8a1e
3cd045a0
3d8b5214
bcc4251d
bd19184d
bd87fbc4
bc0dbabf
3dad57e6
3c6839a1
bd07929b
3d5ed0f1
bcc9d5a7
bdb61bdb
bd8e0b83
3ca22210
bdbd7636
bdb2b8ef
bc34022e
3d0eed82
bd7fb139
bc837e8b
bd86d6c7
3c6f53b0
bda8f971
3d1921c7
3933acf8
bd806cd3
bd99c0b1
bd97923f
3d3a8f7c
3c205bb5
bbbc314c
bcbdedad
bd89b258
3d28a723
3be83471
3ca089e1
3cbc27f1
3d5a8c6d
3d8498c6
bd75df4f
bd0bef17
3d81af7a
3c7b49e7
3d8e30d0
bd1208f5
3da96f13
3d6cb91b
3db307a7
bdb34248
bd04c00d
3d3c5ba2
3d8e43c7
3a904ee9
bc803821
3c5ba3b5
bcdf7b4b
bd92100c
bd0e18a4
bcf9c99f
bd8b144a
3d336336
bad60d67
bd7f43a1
3da9a2b2
3d87132c
b8b8d8ef
bd88d7e5
bd03b8bc
bda366be
3dc3f8d8
bc601c86
3d6e3faf
3d3dd511
bd60aab4
bdb72df9
3c7107bf
3ca55f19
bd9ae6ca
bd9f4a10
bd891446
bd9953f6
3d769042
3d74b1d4
3db6510e
3d697286
bd245604
bd884b23
3ce034e0
3b09f507
3d42c6f5
3cb285dd
bd9ada36
bd1bc496
3d6641ff
bdc34764
3ce807e7
bd363f85
bb88495f
3b9ccec0
3d29088f
3cffcdc3
bda7d2f1
bda48a6b
bd96c764
3d126a8e
3b9491e0
3a823037
bce5f6db
3d12b2de
bd1283b5
bd4f3a36
3b56a0b2
bd8c3687
3d6eef60
3d617baa
3ba33e16
bc3c509a
bb7a618f
3dc34a5f
3da09a77
bd643a8f
baff432e
3d1abc7f
bda107ed
3d5da210
3d51cdae
3b9b2c37
bbb99740
bd00adc2
bc8aae89
3dadd19e
bcc943b8
bd38b1c0
bb98cb10
3c941fa5
3b8afc53
3baf801a
3d99fe40
bd0ff7f0
3ca9fdc6
3d1d8df2
3cdc0e82
3d8a34bf
3b559542
bd54d76c
3c0c84e0
3d33f770
bd03544f
bd2e11a8
3d843b3e
3d6afa30
3d6c77c4
bca0b88e
3d98d7a3
bc899dc0
3da4f140
3d9fb2a7
3c12605b
3bc5e870
bcc10386
bc1368c6
3db9d2d5
3c03f41e
3cf586e4
bd52a687
bd841368
bd9b51b2
3d6f46b6
bcf048d2
3c432980
3cae76ca
bcd4ad1b
bd8fe89a
3cf8b65a
bd6fb4d1
bd5a58e5
3d4f3729
3d0eafa0
3d8c8fa4
3bfe48aa
3d31aa4c
3d8817af
3da7db76
3d1a4e0c
bdbb133d
3c26d010
3cc50040
3b1320fb
3d8f2f12
3d04d0a5
bc21e2b3
3b43b980
bd088cec
bd0931bc
bcdb8c67
bd2bbf9c
3d118f4d
bca60437
bd6a8b50
bdb407e9
3d1c4149
bdb47474
3d55c3d5
bb4ddc3b
bd23b590
3d412b53
bd21526f
bcca18b9
3bde7a1b
bc224899
3d063954
bd1a71c0
3bd63d49
3db9d64a
bd0a4776
bd82584c
bc9e787a
bd518a5f
bd776cdf
3d89af41
3cabfa90
bcee7216
bd534972
3ccce363
3cba0322
3d72d683
3d54e1eb
3d091f3c
3db42d48
bd0630b9
bd016d19
bc3b1f25
3d8d7c29
bda556de
bd806988
3dbff067
3d6f88f7
bd48a690
3d80e3ae
bc404791
3da3a85b
3d4f9436
bdaab538
bbf8b60e
3dc30a5d
3c3ca348
3dadf13c
bdb2d561
3dc014c9
3afba994
3d33c8fd
bdb0d503
3dc39a84
3d803742
3d31e26b
3beeb520
3dbc5cca
bdb72dd7
3d2c4c3f
3d5fddca
bdbe707b
3dc330e3
3c7b6686
3cfead20
3d494387
3c862bf2
bdb83635
bb829573
bdb27923
3d96ffde
3d0235c1
3d6eac05
3da1f5c6
bd6a5d2c
3ce91728
bdb97c83
bbdb3500
bca23ac8
3dac6b38
3d5a2774
bc50f33c
bccb4a8f
bdc4a454
bdb64933
3c7a0b64
bd3cc055
bd8880db
3dc1d8a8
3da3b0e0
bd8def33
bd4d1c85
bdb9f958
3dbfdc5d
bd86fdf6
3da1c927
bd0baaea
3cd4cf78
3c91b334
bda3e7db
3d73836d
3db8b024
3d36f21d
bd81c584
b7c02838
bdb5e487
3d31245d
3cfaa1a2
3dc9cd45
3d9d0d3d
bd5b1cdc
3d78e730
3d52e8a4
3d8df857
bd14e885
3d9289b9
bd28d256
3c80d838
3d96c225
bcfe9bbe
bd255cf8
bd64a5e0
bc8ee652
bd850698
3cdbeb45
bd4cf05b
3cab5f5b
3d47af31
3d6f58a6
bdade6ba
3db1beab
bdb9c5a5
3d58ea36
3d839e98
3d0c4c83
bc2dec30
bd5c27d9
bd9c31a5
bd54d1ca
3c74adc0
bd8eae12
3bd8a190
3d802c5a
3d908ddc
bccca16c
3b994726
baddd716
3d34e59a
bd806db3
3d7dbf6a
bcea3303
3d364a44
bd14aec1
3d9d710a
bc16ab04
bdad5e2a
bd1122cd
3da82001
3bf16fee
bda541e4
3cc50743
3da59bc2
bd8154a2
bdbe5e68
bcf5d5c9
3c4109de
3d6fbdda
3bd43e0b
bdbd9015
bd37280e
3bdbc980
3cd1aeb0
3d93fc01
3d98bc4c
3d682543
3da64e0b
bbe2e6ee
3d52b302
bdb26cb8
bd00fd84
bca65fa8
3d54ba52
bc7ba7f1
bcb45091
3db582f8
bbb90d30
3ce6631a
3dc7bea4
3d960945
3da70c62
bd850291
bd98f693
3d66bcc5
bdb8e1ee
bd7b5e62
bba0b85e
bb78a1c0
3a155874
3cc8a2b2
3d70599e
bc3a72ae
bd780a87
bd460d98
3b46a8e0
bd990dde
3cacb79f
bc91f760
3a1292fc
bdb6fb29
3da707f6
3dae1972
bd58dea9
3d1eac66
bd92bf58
3d7977f8
bb162cc0
bdae6f8d
bc40d8a6
3c9ed220
3d92c66b
bbcbcc6a
bd060332
3d70e429
3dc5b991
bd9c6223
bdb60f96
bc4b8e20
bd6b1b78
bca82e49
bd86eeb5
3da38992
bd2b95a7
3c0ceef0
bdbafe5d
bcdf08b1
3ccb7843
bdb694fd
3d5d906f
3db0d77a
bd1f1e22
bd95c3e0
bd905eb3
bb2b80f3
bdc21162
bd9f5e5f
3cfa7df6
3cb42b0f
bd880ff0
3d9828d2
3d9730ce
3d64c4b7
3daaac59
bdb8cbdd
3c8b46f2
bdb62ae1
3ce3a511
3da65cab
3d9ba7ab
3d791779
bdad011f
bda6b146
bd9f06b8
3ba03960
bb43c6c3
3ccd0d54
bcae3882
bdad18b2
3c0ec0e8
bd9a003b
3d1be443
bd8ebc0a
bceadf5c
ba408b71
3d2fe4d3
bc59931d
3bca34dc
bd33c20b
3da04cc8
bd79cc42
bb8ac72f
3c759823
3d04587c
3da7f765
bd70a9d5
3d99123f
bd5423d2
bd6dd8e7
bdbcb43a
3d5df4c9
b987295b
3bf286d0
bda696e7
bdaedeb9
bc919557
3b7705ed
bbe76e8f
3d212340
3d29c5cb
bd965c54
bbb24c7f
3d15c99e
bcf5671d
3d651ff5
3dba6ba0
bd5dc478
bbf235b4
bc376423
bdae4ca3
bbcda227
3c51192f
3d7c3173
bc16f5a7
3db4ec08
baaa9d40
bc59bed2
3d29edd3
bdc12d01
3d904920
bc576cf3
3dc27394
3db46594
3d80165a
3c43f770
3cbed82d
bd2f9d82
3daef039
bd83f075
3be70db3
bd1db784
bda44e96
bd8a73ed
3dc60976
bda13373
3dba1355
bcf720f0
3cc735a1
3da26b83
3d258f7e
3d13f6b3
bd31035d
3cf4a4e3
3cc68180
bd14c660
3d4db7c7
bcefd5b5
3d873de0
bdb72368
3d2b1de2
bd6bda5f
bc48e337
3d5499e3
3d00f388
3d38745b
3d135cb6
bd123bdf
bbe528ff
bdc1fd93
bd091344
3caed6cd
3d55bf18
3d8c7f78
3d4f05e0
bd35a4ec
bd9b7abe
3d543ced
bd4b4a8c
bc91f873
3c2627f5
bd5993f7
3dbf7b9f
bd31f2f2
bbb7a43d
3cd8bca1
bc4311e8
bcc93c94
3da9b19c
bd7171d0
3cab3724
bc3a1b57
3d9fe92e
bd304ec1
3b9ebb8c
3d9c0e88
3d41a077
3c1e6a95
bbdcfe32
ba1f9ac1
3d63f4b6
3dcba5c7
bd0639da
bc0c28f4
bdaea27c
bdb6a038
3d8cf28b
3b37377c
3d7f77ec
3d8662d2
3c4ba627
bd034e3a
3d32fcd0
3bc386a9
bc82388b
3dc1ca42
bd2134a0
bd986e16
3d5413f7
3bd4e7a8
bd801308
3d91613b
3d7b84f6
3d0a56d2
bdb46b68
3da42c1e
3cf87f6d
3d224580
bdc03f76
bd955f19
bc91308f
bdbb602f
3cfcfb17
3dc4d008
bd62fd9f
3cc0c49d
bb98b851
3d94919e
bd5880b7
bd703dbe
bdbb37d5
bccbb505
bccf2f89
3c643493
3c20965b
3d48e350
3c5cee8c
bdbe4875
bcc1b6fd
3af2451f
bca291e6
3c869774
3d951e04
3dbda464
bd65481b
3d9eadb9
3d3e49de
3ca56b96
bd9619f3
3c9e7261
3db76316
bd58bf76
bdb63fa0
bb93a388
bd8e7400
3c32f99b
3d350fa1
bb551928
bc0c9966
3a9e77e7
3be9e5cc
bd91d453
3c5cd3d0
bd68f195
3d563835
bc05fe40
3cd9dd1a
3d9193f3
3daed1bb
3cd2221c
bd7863ac
3d911163
3d8a9228
3d0e92ff
bd1b8572
3d1e5b64
3d8ba519
bd6311fa
3c6eb696
3dc28799
bd9ee03c
bd0178fa
3cc9ece5
3c0ea589
3d3a7bd6
bd512c4e
3c8c7689
bc546798
bc989d8d
3d61000e
3dc5ff71
bd9aa6d9
bd8a19fd
bcdc280c
bd80666b
3d4d7a6c
3da7694e
bdc5acf7
3af02b8b
3d6b180a
bcb3b950
3c66fe1d
bdba92d0
bca5ed67
bd64045c
bda0f76c
3bd50564
3d21bb30
bc7c0bb8
3d209f4d
bd08f589
3ce61572
3d83d06d
3b05850a
3d9aa1f2
b9ec05a5
bb0128f9
bd4e939c
3d31422c
bd85dd14
3d642ffb
3d435c30
bd2c4852
3ca663a6
bca81ed3
bd1211ac
bc0d5ce0
3db91730
3d5e4db0
3d196778
3d6b4be7
3d5bc305
3c375c86
3cd60198
bd9d123f
3da9e286
3b9564a3
3d8482fe
3d62e8a8
3d04520c
3d5258de
bcb647d6
bbae593b
bd8ad103
bda7fa90
3d5445ff
bd1e58e0
3d8d9121
3b8ca956
bb3a6260
3dcc596d
3c9ba1fb
bd55ed73
3d130169
3c45b62c
3dbe26a5
bd39b355
bda1096a
3dabe86a
3d99553c
bcbcf1bf
bc1e4712
3c9861a4
bdaefde5
3bc92d47
bd8a8756
bd2e6f2b
bc17dfe6
3da57333
3bf35bcd
bc92482d
3dac29fe
bb4ab9a0
398a6b84
bd720882
bd47029e
3d58feda
3d980aad
3a8e7ab6
3b96c09c
3c9219f5
3d4ba0a9
bcee6a5e
bda29de2
bdab0b44
bd009933
bafb53d1
3d81d010
3d56b425
bd98d90c
3d98d6ca
3c398643
3d64bd61
3cc18a28
3d440dd6
bce34b50
bd13d089
3ccf28ca
3bab6bc9
3dad9387
3d1020d0
bcefdecd
bc4e28c0
bd8bc00e
3d13bf61
bcbdc200
bd6f0ae1
3da87194
3d809e21
3dae9e81
3d817df3
3d0e535d
bd9969c4
3dc59cd6
bdbf307a
3dbbef43
bcb59833
3dbfa013
bc76b6b1
bcfef6e3
bdadf15d
bd567bcf
bdb4d6d0
3d2b7f33
3d9932e7
3d636651
bcb69dd4
3cdd838f
3d71e091
bdbf4b69
3d757eba
3dac4cd3
bd4b5cae
bd403266
3daa4e21
3d0500d4
3d5c7b00
3d782676
3d5f5a8d
bdb9a400
bda53286
bd60c8a7
3da68e82
3cfb405d
bdba0ea4
3d982557
3d9e9c85
3c9533ba
3da9226b
3d7c93a1
3d9fd248
3d1b08f4
bc47100e
bd97144b
3daac0f2
3d56ca2d
3db2e292
3b1d7480
3db87637
3db81059
bb8edcf1
3c9d9b75
bdac0176
3c80fc1e
bd068e18
3d46d651
bd8a8f8e
bd4cc3ac
3d84eb85
b96c2ca3
3d7e4e8a
bbf2f23c
3d853bd8
3ca0f631
3dac6f5c
bd8bfdbe
bc6e9c44
bc9d19a4
3db147d5
bcd66532
bdbb108d
3d57e1df
3d90003a
3d0d659f
bd9e5586
3d2e9bf1
bd8c3f45
bc91d051
3c4dfb43
3d6f9f49
bdb90b8b
3b3a5098
3db5a312
3c81b943
bd32113b
bdb72800
3beca55f
3d27d840
bdb140c2
3dc05440
bd89fc17
3dae36dd
bd84e64f
3d10d0ed
bd20bd59
3d88fa70
bd84aaf6
bd21f2f5
3db66499
3d96282a
3d75e060
bda9cd40
3b8eaa13
bdaf2974
bd26d13f
3d8c20b6
3dcc029c
3db9a056
3d663f64
3daa64e8
3da0819f
bd13bbe7
bce5f64d
3cd9a7f0
3d8b1296
bcc44439
3da13f34
bd893ea0
3d3def47
3d89d3f7
3d0bc1bb
3da740d8
bd42f2a1
3cf1827b
bd12e352
bd1d9ab5
bdade182
bd0c659f
bc12994e
bd6eed5c
3c2fa542
bd4fb4bf
3d111243
bd6906cc
3c8be8f1
3d65bc45
3c4f3009
3dc33907
3d855bba
bb9d16b9
3d8def41
bc9b79d8
3da3fb67
bc74c582
3be1802c
3ce6d72d
3d3c8189
3d7dd67f
bd5430ec
3d07e40d
3d99055c
3d9ea8df
bd4bffbf
bc200580
3d3f3b7c
bd3ce7ac
3daa37e4
3db4c317
bc300580
3dc2ba58
3cf8f8ca
3d20c3dc
bcd8b5cf
bd698fea
3d61a724
bd8979f4
3c54163a
3dd571a8
3cf1b9d8
bd47d9ee
3b8ec4f0
bdbd722d
3bec0070
3d806c48
bc8ed229
bd600357
bd3be454
3ccf37ad
3cb63b93
3d72fc65
bd3bb465
3d708763
3dcf7620
bdabccc3
3cd3165b
3d9d2d36
3baad053
3c0cb58d
bd849908
bd972c85
3c7a9eda
bd7c27e1
bd1b8fae
3db93a75
bd3b8305
bd90daab
3d6ceed8
bd56bc44
3daada0b
bc938ed4
bd85bbf6
3c7190f3
3db8f7b8
bcd89b5b
3d87b15e
3dc29c40
bdab78eb
3d9a40b2
3d756c46
bcb78ea1
bd5f4395
bc2ad65a
bc613278
ba99e66d
bcb8f7ee
bbfe16c4
3d9018b6
bda004fe
bd88506e
bd8e771e
bcc3fb74
3c0db5da
3cecb32d
bd9d3253
3db14462
3dc9e5f5
3d0aa5d7
3d38f47b
bd4f0e08
3dc550bb
bdafbc86
bbe3f5e8
3d187961
3cc8b584
3dc3728f
bda27384
bc62f300
bcd73338
3d8c45a6
3d791a18
bd9098aa
3ba2735d
bd4379a3
bd49fa32
3c9a81a5
3dc7f8d7
bda5f810
ba7ed675
3d264742
bdaba080
bda90818
3c1d4a6b
bc7f1201
bcc82b30
bd81d251
3b26c158
3b897556
3c84cb83
3da38813
3ca138b0
bb8704e3
3c981f95
bd949602
3d1aaa8f
3d17773a
3da72fc3
3d962e3e
bd36ba55
bd32c421
3d325767
3c870d48
bce10597
3d7bdfc2
bccbc761
3dc44588
bdb980cb
bd345e64
3c8f1330
bb976bf0
3a82b4cd
bd8ec301
bda5273b
bd337001
bada3db5
3d34e067
bd92b9ff
bdb90b9f
3daa1544
3d2a06a3
bda5787c
3cc3dc12
bc9307ca
3a8c94ee
3db10f59
bc288dee
3c884898
3cbb1d52
3d90ba19
3d4402ae
bd7c31e0
3d28e4c0
b9406611
bdb508bb
3caa0a34
3cd06c29
bd1a7faf
bd0e7ffd
bc016b28
bdcbe276
3cba70be
bb8a757e
bda02e8d
3dae3f63
3da8978e
bd47b62e
bce22894
bc62f394
bd651e08
3dc3571c
3c7f3f7f
3db8b1a4
bd9d286e
3a825624
bda0df40
3d99c0b0
3ca5f815
3d9a8ada
3cf4d457
bda58b09
bd3c7f54
bd03e762
3d5d8a6d
bd56609a
3dc5f581
3b9cb1a5
3d4dae61
3d7df95f
3d9b842a
3bef3acc
bd11dcdc
3db9bd69
3db38819
bda23891
3c87c64b
bd97c3ef
39e4ee00
3d9e4f2a
3d7a4940
3d0d446b
bc14f6c4
bd5f7086
3cc95cda
3da1fc69
39c58cdc
bd1ad5c8
bd247e93
bd3ee130
3cc8401a
bdbad477
bd28a960
3cd41180
bc497122
babb633f
bdaac1db
3c8fc65c
bd95e1c4
bbe9d263
bd564b6e
bd208ce8
3d3f6a17
3db0d289
3cb91a16
3c4f0784
bbeb2164
bc851c39
3d96d809
bdb16da4
bdc3bbb4
3d9e7dc7
3d3289aa
3d90826e
bd28088b
bbbb93c6
bd9d781e
bda6d20b
bcb00386
3cf47a95
bd1092bd
bcdcb24d
3d173991
3d251578
3db0dcd6
3b85843d
bd59bf1c
bcb9ef5c
bd014122
bcdb7e69
bdad6662
3d9c1a90
bd400600
3db7ae94
ba335712
bcfd3a39
bd41f5e0
bc8b17ab
ba525eaf
bd5b1593
bcd85a50
bcdff642
3d6247bc
bd98b411
bb54e96b
bd433596
bdcd29f4
bda0a524
ba47229e
3d5da956
bd7322d7
3c9e357e
bd1f1253
bd11e48e
bdb7ee41
bad475f7
bc64df85
3d92c62f
3d7a523f
bcaff2fd
3d28be1d
bd645f1f
bbfa3a82
bd883841
bcb89ce8
bd91f009
bdb2845f
bd9b9fed
3d8b91c2
bdb7e693
3da33a15
bb79c1cd
bc8d370c
bca64b00
bda4e6d9
bd589532
3d8f6629
bcb8251d
3bc0bf48
3d5cd224
bd76e3b1
3d8984b8
bd3ea99d
bd727667
3dc221f4
bc92b9e7
3d5d31bc
bd083cae
bcbd65e6
bcbd005d
3d6ee7b7
bd4d3d11
3cfe574d
bd59b63e
bbd7515d
bd1603cf
3d455676
bd6ac696
3c6ca20f
3c8d1cd2
3c314ad4
3c357e8a
3d9d1e7b
bd4cbf6d
bd8d826e
3d81d123
3d70d744
3d45e4c8
bcf944c8
3da2c74c
bd77f13b
bdb9d4d5
bdaf4015
3c2921cc
394593bd
3d853edd
ba8f078a
3d402fdc
3ce4ec4f
3cc1a017
3d1b3094
3cad0b90
3d950053
3cf3bb57
bd304261
3c25da28
3bb3b8dc
bd7b53e1
3d3614e8
3cd3b08e
3ad5c252
3ce8ec3c
3dadb657
3d94a2c8
bba99ca2
bd57256c
bd147f0a
bbb9d45e
3d104a95
3b952ef7
3b89802a
3bffb593
3c1f355a
bb60459b
bd33c0f1
b95ce2f0
bd4cd91f
bccce567
bd362434
bd0a9df5
3d31e90a
3c648655
bdc586bb
bcb63958
bd95770b
bce57880
3b18be4b
3cec7c19
3c876fb9
3d17291d
bc1d783b
bd120f6c
3c187116
3d87d245
3ca7de45
bd00e224
3d01eb52
bd35de5b
3d62a7e8
bdc68aaf
bd97e537
bda371da
3d927017
bba1fa01
3dbf606d
bd6e51a2
3ca39211
bd5304b6
baf1bd1a
bcf2165b
3d5f286e
bcd01a6a
bdbd216c
bd96068b
bd4a27e0
3d650b12
3d8954c1
3d8ec9f8
3d80438c
3d9ad57e
3cd85a75
bdac67bb
bd8e6776
bbc62602
3cab1ab8
3d66cd17
3c410cc7
bd8c5be0
3d2b0ff2
3da27c18
3d93f466
3d0b7a0c
bda70ad5
bd99bdc3
3d5afed6
3d9cfafe
bcf714d3
bd9adba8
bdbd9775
bd3fd913
3d2d0bf3
3d3b18ad
3dbe4ef2
bd31d58b
3d24cef8
3c455fd5
bd8587ef
bd9c9e8b
3d9163fe
3d6a3a7f
3dbc948d
3d8b4693
bdbd7e03
bd21b9f8
bc705d96
3dc40d85
bca11040
3d8aac7a
bd93a169
3da9b6d2
bc85f09a
3da9be54
3dc0b754
3ce7d07a
bd673e4f
3cac9188
bd7bf7a2
bd0bdd32
3dbe67c2
3d165d02
bd050abd
3d101a58
3da5d503
3d802073
bdc0ccc2
bd37c3c4
bdbcdde7
3db3e89f
3c1af210
bd2cd2cc
3dd7be0a
3d792424
3d9f08a8
bc951dac
3ca78478
3d9718c6
bd7fae1f
bdb901ba
bdb5c702
3d801140
3d5fe39d
bc231708
bd3ffde5
3ce40345
bc909404
bcdecd54
bdb79a39
bd16558d
3bab9496
3d658378
3d865387
3cf5caed
bd80697a
3d2679e8
bdb84291
bc64d070
bd81be77
3afc02f1
bcd69b17
3c879cc7
bd37f015
3d8351d8
3d7058cb
3d033bf7
3cd93963
3da9833a
3db0d95c
bc566eb4
bdb7d6eb
3d2d43ad
3da6f6f6
3d8bcb41
bcdf92c2
bc18326d
bbfa5ea4
bd3d4404
3d8ca933
bd4a8780
3d9099e8
3c80bc94
3be0b579
bccf5e57
3d82b0bc
3dca3756
bb944340
bcd6342b
bc39fcf7
3cea312d
3da3ef49
bc7cca55
3d97f573
3d3cb6a5
bcfe17a1
3d6fe607
3c9027e4
3d83d806
3c22797e
3d3e4ce8
3d2727a2
bd1e6837
bd9fcd90
bd37ff4f
3d41c663
3d92556b
bdc1983a
3d98b6ef
3d0852b6
bdab8c93
3d39082c
bd5428db
3db74db9
bcc5f8c3
bd0bb0dd
3b190e2d
3dc8ce42
3cebb0c1
bd9a2fd4
bd3e9cf9
3bdc36b9
bd73b831
bd8e3d14
bd11cbf7
bd2c007b
bdaa0139
bd38198a
3d8eed26
bd3f464f
3d8f9c8f
bdb80115
bd6f808a
bdbbb5c8
3ae92723
3d844414
3d8f052d
3d159ae7
bd6ef60d
bcde3a84
3c36d7d8
3d9b7449
3dc2aca4
bdca896c
bc1415f0
3d95f1c8
3ce44018
3d000cba
3da26a5a
3dadb5a9
3d291d28
3cad20c4
3d6d70bc
bd469e8d
3d872a68
bd7f2639
bcaf5947
3d219572
3cbb0be0
bd5edc67
3dbcbae9
3d447af8
bdc041d2
bd930451
bcfabe34
3cc3b4a8
3c829723
bd3e7f78
3d5afa7f
bd53d9db
3d24476a
bd60fde2
3ccfe7c0
3dc6fa9e
bd28dba7
3d83596f
3cca8a7a
3d10c084
3c03cf5a
3d16c7b5
3dc567b2
bc3e87df
bb86f3c1
bd66cbd9
bd7dfebe
3c25c77e
bd86879a
3c6b9bd0
3da879a6
3d0d4d74
bd764985
3d607cb8
bb5ebd50
3dc0a127
3c8fbcd7
3dae3f6b
3d8d4a70
bd63efab
ba90f6ce
bd837d5b
bbb03d96
3d6b5763
bda05885
bdb4bf7a
bd7921d2
3b9c29a8
3cf6e779
3d24955f
bdbbffbc
3d825254
bd8b24a7
bb9c616e
3d0dab59
3d90459f
bd8da36f
bd552506
bcc0d293
bdb46baf
bdc0361c
bdb60a2d
bd43714c
bd49a900
3dad236d
bc0e04d2
bcdd3f1f
bdc5c96a
3d10a244
bdb86de1
bceed368
3d9aa30f
3cc0600d
bcaca168
3d6ebc39
3b12507f
bd8e0082
3d5483b8
3dc37990
3dc51db6
3d5ac0c9
bd8d57b0
3cee5cf0
3dbdcf94
bbe886fe
3ce72816
bd873578
3dba903b
bd99e5d4
3b02fab6
3d9395f5
3d9df13e
3d52bac1
bd9e9ff1
bc02cef8
3d840996
bd9d9470
bd5fc8a3
3daada58
3cb6e615
bccda8cc
3d71b940
babe94c0
bd0f7cff
3d9f271c
bd71d775
bd5dd577
bbd704fe
3d0a42b8
3c232097
3d02c387
bceb0f5c
3d3c901d
bd4c9f3d
3d45bebe
3c67c128
bd6c9f09
bd2fd797
3db4d3c3
bcdf5555
3d9cdae1
bd0232fe
3db71548
bbf856d0
bdc46231
3dab4412
3d816b27
3db33320
bbc56e70
3cc974b4
bd7db9b5
bd68b1ee
bdb9cd43
3db3a1d0
3d1d8dec
3d3d24b8
3d7383b6
3c45f7f0
bd3b2ac3
3d301a7f
bc54d7d2
3c5fdb9e
3c815d34
bdbfe76b
bd906e58
bb9aaace
3c1dffba
bdab6825
3c6743c7
3c4d7782
3d083dd1
3d630d16
3d955b38
3a2511f0
3d22cdb0
bd2bbab6
3ca73be9
bd2e56bd
3bf8f932
bd603a3a
3d504c72
bd901ac0
3d945cb4
3dbb5633
bd68e936
bd8836d6
bdc54ed7
3bb39170
3b112fef
bd81aa54
3c1b71df
3dc87df6
3d0812a5
bd2c8f7a
3d83a05d
3cae4c58
bd5c44bf
bd2dfb41
3db0c1f6
3d6ca0c8
bda985fa
bdacbafd
3d5619a5
bd651dd8
bdabbb25
3ced3957
bd8434fb
3d286f88
bd085eac
bd9237a4
bd9eebec
bdb624ea
bd681c71
bdb09490
bc5bb09b
3d20a6e4
3d00e075
bdb7dac8
3cda1bd4
bd947fa0
3cd07148
bd8c277d
3dc11256
bda0c6cf
3d6dca83
3d3ffc79
3d89c66e
bda59e12
bd8cfa01
bc61de6a
bd14c9e2
bd2b0855
3dc26265
3d0f31c5
bd1bb47c
bcc8412f
bda3ef0a
3cca80ec
bc6b86d4
bd9fd301
bd81b4a3
bc74b508
bdb1143d
bc5296cd
3db7c70f
3d602cf9
3d983649
bd260ee0
bd064ea1
bc2dcfc9
3a77b61e
bda4b66b
bd80a8ff
bd23fb34
3ba1721f
bbb4b204
3da597dc
3d2f724f
3d0ddf3e
3d2dd4c2
bd82e14e
bc1000be
3d517884
3dc04660
3c0b6f10
bcca78e7
3d89aaf0
3d6f0584
3d81b20d
bda9b0ed
3c55f8e9
3bedd8c3
bc6aba3a
3d3e3860
bd7293d5
bc99f4e2
bd0f03d7
bdb4a31f
bd07e9fd
bd464b14
3ca0903a
3d4bce70
ba411b00
bda82c86
3d4b142e
3d3b11cc
bdc57b2c
3db18fc1
3da3df7b
bc37e5d0
3da71adc
3c86792e
3da84c70
3d8a0207
3d2d8735
3d2a81a9
bd979ae0
bd2c3a2f
3ce5bfa0
3d976044
3d4fd141
3d8a6621
3d3ee16e
bc1ddd08
3cf53211
bd95261c
3cf4a74a
bd249e42
3dc14cd9
3dbcd5cc
3d8b8918
bbdc96aa
3d3abedc
3c46f48f
3dbb8ead
3cb5278e
3d7ab1c7
bce41c5e
3d1b2b90
bc4721d0
bda8b1b3
3c1b29ea
3d6a2d19
3d20776a
3cc6903d
bd0e81fc
bd04759b
3d607cd4
3d1f6e14
bd344672
3d3e687e
3ade48dd
3d7e635c
bd93287a
3db7358e
bcc0d7d5
bc4c9970
3d90f2ed
bd81e6d6
bd98bdf0
3dc00787
3d9c8d17
bd922ea0
3dad7ef4
3d5d3ce4
3db2ea59
bdb77ad4
3d88eaf1
bbf0e0e4
3d3cc158
bdae2632
bd99e68e
3d254644
bdab761d
bd37d156
bd55555c
bc77164b
bbc91cdc
bd969fe8
bd243aed
3dbe897f
bcbae2be
3d6f10a1
3c8ff660
3d987906
bd997964
bdb490dd
3d80b3f9
bc5a4df2
bd4bc888
3d768884
3dafa01c
bd0c1859
3daca751
3cdf51ec
3d756bc9
bc7386ec
bd65ede0
bd5fc80b
bd1d8638
bcb8dd3d
3d0b8feb
3d756b84
bd90ec8f
bda7b3ad
bc21f085
bc018d80
bd1e54ae
bca9ae0a
3c9b75be
3b848c3c
bd93ba7c
3c95a45c
3d538c32
bd8dc8a8
bd406260
3ab2c45c
3d70002f
3bfc5396
3dc28854
3c4f43e6
bdaca664
bd5b0c9d
bd94b1d7
bd8d1c09
bceba124
3d9c0ee6
39f39900
bd8db77c
bdc15996
3b594060
bd9a1c79
bdc1f384
bd1a938e
bdb73113
bd24b1c2
bc5e97e0
3d3f38b4
bd1a0786
3dbc6c0c
bcf00cec
3cd466c0
3d803af2
bb853410
bcedef3c
3c788a40
3cd46d88
bd29b47d
3c482680
3d7d2724
3d2b686c
bc8da818
bd63c32f
3db72f54
3bf816c0
3ceb3278
3dbe4d16
3c239930
bd6fd9de
3d4e4a0c
3d21c620
bd8068e7
bdc4e86e
3d1dc45c
bd98d013
3d64c484
bdb18467
3da3da52
bd1d9d6b
bdaa0626
3d913c64
3d9cab6c
3d81d480
3da2e17e
3da1e4b2
3d058790
3d84648e
bc5b8be0
3ccc31cc
3cdfac14
bd6b3e47
3cd5f628
3d820a54
bd9feb21
3d86325e
3bc143d0
bc843110
3d55b4fc
bd1781f2
bcd62df8
3da0aa5d
bbdb336c
3dab995e
3d4c43b7
bd94980b
3c92d10a
bd8788e8
3dc1c6da
3d284ece
3ce3b486
bd3d678f
3c676a8c
bdb288d0
bd06e31b
3d765ef4
bdb7725b
bd21b17e
bdad95e2
bd63b24f
3c0a54bf
3dcbbf12
3d6f7e1c
3aec68f1
bc593d03
bcc17595
3db04873
3db0bc9b
3d6e3f0c
bd8566b4
bcc35888
3d58c67a
bcb42dac
3d5bd1c7
3da3f719
bc8c60fd
bd9130b4
3d245d03
bcf6df14
bdbceefa
bd0f97bf
bd10e9b9
3cf8a8df
3b7aca25
bd5910d9
bc35852e
3db1a54d
bda44ccd
bd4ce0ca
bc69cef7
3d807112
bd57228d
bba0a447
bd84be87
bcaee795
3cdefb8e
bc9ad0d8
bd7ef680
3dc69686
3d23feb3
3c5edcee
3bcc25fc
3d07cb2f
3dc2112a
3d38f7de
bd5876fb
bda4c896
3d9aae98
bc869d17
3d6ce6e8
bd53e029
bcf5c6c8
bdb96d9c
3d46834d
3d980dee
3d1b852f
3da24757
bd857715
bd13f9b0
3d423bc0
bda64fa1
bcf1b5ca
bdb8c238
3d9fcccc
3d5f41a8
3cc91c3b
bd6d6699
3d1392b8
bd0e8405
3cc08f93
3da70930
bcf4f11e
bbc66460
bd2379f1
bdb80314
3baee307
ba945d78
3c01e331
3d8cd952
bd2d0ea0
3d7b37d8
bd4dc121
3d569fc1
bd84b122
bc98e2bd
3d02b24f
3cc9ef6f
3c0260a0
3c2f063b
bd1e5aec
3d421c66
ba9c0a2b
bdb769bc
bdb2508a
3ce46884
3b978290
bd88e427
bd2a983e
39e0ee5e
3d3fbf5f
bcee4f74
3dbb50b1
3c3b2fb4
3dcc27ef
bdcbb28a
bd0cae1e
3d4f5613
bd7b7bb7
3d9a07b9
3db127a9
3dbe164c
bd36f79d
bd7dcab2
3c46a680
3d1a5b3a
3db00940
bc92fe70
bb8d2602
bd1625d8
bb414ff3
bd8328f3
3cf0ab74
bd3a4bef
3d20b752
bdc46d04
bdc28724
bd003f8e
3cc6c33a
3d8b0faa
388aa76b
bc71ebc8
bd165d77
3d9e5694
3d8b6711
bcfb7579
bcf035f2
3c604db8
3bfebb42
3d94507c
bdba2a39
bcebb34f
bd5c598c
bdb6b0b8
3d78543b
3d38ab7d
3d9b6cac
3c16cd51
bcd13f4f
bd708c98
bdbad054
3dcb30a1
3d532f4e
bd3359da
bc844d0d
bd82091d
bd5c7170
3d92f812
3d206508
bc4d2d80
3d8c86c0
3d43475a
bd5eca26
bd9ef8da
3cdc7612
3b9197fe
bd9187bc
3db91fec
3db07efa
3daa7176
3d89f713
3dcc0c7c
bda0a0ea
bd8ed6a8
bd6895d2
3bbe09c6
3db476dc
bd9683f7
bcf3a450
bd9dc8ac
3dae4125
bd9f2e30
3cb5cb42
ba3c5677
bc68ce48
3d927f76
3d7da326
bbd29b85
bd9b3a10
3d5e60fb
bcf855d3
bd8792f4
3c9446b6
bd1ddce5
bd4770d6
3ce2f937
3d36018c
bdae44ae
3d93755e
3b8c1578
3c3d2d0a
3d85d1e2
bd856672
bd3f6222
bd92cc0b
3bd35ea8
3d9f750e
bd6ff40a
bda79a94
3dae4761
bda6e47c
3d3b4259
bd483173
3d761695
bdae8775
bd6b45a5
bd9b70b9
3d96f733
3d59574a
3c28e88e
3bec413b
bc0b1c13
3db04ca8
bda3ad8e
3c47b428
bc9e4cd9
3d22e0a4
bbcbfca1
3d919a04
b9fbb4d5
3c580f64
bd1f977f
bd12bf7d
3cac13f3
bd46ad06
bce76bb2
3d9ffda5
3dbcc0da
3ba43c43
bcd23e6d
bd910aaa
3cce5927
3da5db50
bd53f3ce
3dc0373e
3aa33680
3d0c7e86
3c94956f
3d87c2af
3da6f15a
3c722a78
bd123d26
bc814d1f
3ce0ebff
3db9f283
bd037b43
bd9c94f4
3d772dfa
bcc48ad9
3ccf53ec
bd533f53
bca371b0
3cb55de2
bd33177f
3c1d182a
bd3e65a4
3c2f02a8
bd1d7202
3d487855
3d46a176
3d9bf781
bc7fa3b7
bd03f018
3d5a0656
bc87840b
bd40811c
3dc00408
3d914918
bcbd58bc
bd938595
3ca8331e
3d3f18df
3da0e21c
bdc4383d
bd88f28c
3b5bcf0a
b922d78a
3d73eec8
3d969994
bcbed897
3d9ebc8c
bc5b148c
3d14c3eb
3d213376
3d33aa6c
bccf65e9
3c26aabb
3d5ab02e
3db9efeb
3dbaa6a2
3d8d5efd
3dab1419
3daa3b54
ba5adc50
3ca509dd
3d1554aa
bad158c0
3ab9efb6
3c98a727
3d9ac99e
bd11c071
bd3040f0
3d6941b5
3be808b8
bc23b6aa
bd68142b
3d9a495f
ba7f49ba
3d902550
bcc29997
bd81ad06
bcadd3a4
3d8c5a0d
bc8ecb6e
3d09d3d9
3d7bdc4e
3d7e9a20
3ad98440
bd2c14b6
3d1d9b04
3c1b5b5a
3cb5d099
3bf135a4
bad90d30
3d7ac21d
3dd7129b
bd4b94b9
3bbd773f
3dad5f96
bc567ff6
bcc8a0fd
3cc5b86a
bd579635
3cd77225
3d354775
3d3de1a8
3daa1ff3
bd1823d7
3cb3cd3c
3c87970c
3d14a25c
3d8fb544
bd5946f1
bd4e9e65
3d523043
3dd2dc77
bbb5b6ac
3ae485ca
3bf6ca8f
bda6edaf
3bf7a782
3d18855a
bcdfb2f4
3d1bbe3c
bd0ca0a6
bd0aa3ed
3ccc09e6
bd5ffd15
bdac8298
3cc21b1e
3d665744
bd0e232a
bd2660b1
bbdca770
bdb5da08
bc026f80
bc89ffff
bcab4444
bd9fe101
bdbef667
3da2cd79
3d902b6d
bbb6a041
3c572071
3c6065e2
3c401424
3c16a5d3
3dba368b
bce3e6ac
3d17fc73
3d8ab991
b887ee8d
3da05bab
3b2e9fe0
bda381f0
3d3ce16c
bdb3a753
3daef1a0
bc97b8db
3d880fe7
3cfbf73a
3d458c5c
3d79f314
3ccaa70b
bd261878
bd56c3cc
3d3aa632
bd3069a9
bd47c6dd
3d2c6b5f
bd803ff1
3c8d2928
3db8aaa6
3d91f8ca
bd555e15
3d587b0c
bd900be9
bd008deb
3ca57afc
3dcbdddd
3dc3f1dc
bd9236ad
bd69877c
3c2b3137
3d14947e
bce59e8b
bd7addd9
3cf09120
3d8e6ac1
bdc0e2d5
3c3d60ae
3cb46c00
bcd5806d
3dc61a9b
bbc79120
bd611c2c
3db25ec4
bc83144c
3cc09d81
bd71bdf5
3d0584de
bd29f82f
3db573ec
bd228584
3d0745ef
3b9b4722
bd7fbaeb
3da56d63
bcd3a29b
bd8cf4c6
3dc30166
3db30edd
bd849f6a
3dc8ec27
bae102d5
bcf2a9ec
3ba6bf13
3cf392f0
bda0e03b
3d9a664d
bca37c8f
3aecf5bf
3bc377e4
bc454d7c
bdae577b
3bce48ba
3d14e520
bd978785
3d7ee4a5
bd947ca4
bd379ee2
bda092af
bcf2a7ee
bda0b7a0
3cb57c6c
3d6fd005
bdaead8e
3d940d72
3d35c927
3cf339a0
bd8bba20
bdb9fa2e
3da84976
3d451939
bd98092e
3d7ed12c
bc6d9ab2
3d9aafb5
bcb06956
bd85823c
bdabc2d9
3cfe1746
3d9fcda2
bd6de37f
bd8730a8
bdc1171d
bda02afd
bcda008a
bc7d6768
bd7c9741
3cfa9dac
3da24bd2
3d856983
3c1fd8eb
bc770e92
bd0d6a2d
bd9e4f98
bdb88d5a
bdb795a4
bd06dfc4
bc9c3567
3ce7092a
3d706976
bd222eee
bd30caa0
bd3b1e8f
bb163457
3d342c2b
bd869c00
3dbd6bd8
3c6242c1
3db4e2b8
3daf5c34
3da1479c
bced60fa
b9738a7a
bb4bbac9
3d058134
bdae0f17
3dcb2166
bd53ee0a
3d352525
bd0a53ac
bc1b5c48
3d88f280
3d16886e
3c53b6cd
bd925416
3d9c9d6f
bcc13622
bd1d2aa4
3dc02248
bd73deb9
3d7780d4
bd6f31ed
bd88a67b
bd85b3cb
3dbfde10
3d9370f6
3dbc07f3
bd8e0ec9
bd8e7d04
bd094346
3d518a22
bd2f4f9d
3d6c1e99
bcea9813
3dc236f3
3db4ef9b
3c247e17
3ce1c2b2
bcb3f73e
bbb5e2f0
bcdac595
3d98b07b
bd05446e
bd625ed4
bc8707b1
3cdf4070
3c831aa1
3d72ae4a
3d6980a7
bd8f7e41
bdcf5307
3d2a9b58
bb2cced9
3db54167
bd885e9a
bc8cff72
bd8274b9
3d4eadb5
bd11f57d
3d9ea043
bc44488e
3dc52185
bd5ed1c3
3d41b49d
3cb4a991
bdc74d6c
bd8916c1
bca907e0
3dd18fec
3d94b433
bd06e2ed
bdaf877e
3ce9f2c8
3da9a676
3d1b38ae
3d2f9cc8
bd0eb168
bdc6b45f
bd95ea2f
bd2e7efc
bc46844a
3b63a2d1
bdc856a5
bda18b32
3da471f4
bda207b6
3d95e7df
3d8f651b
bc45fcdf
3b3899cd
bd61482e
bcf1431f
3dbb9a41
3ccd1548
3ca20d15
bd64295a
bd42999c
bc0a68f2
bc716a0e
3d0fd2e7
3cbbe8c8
3da23441
3c8f72ed
bd1450a6
bc4811cb
3d350188
3d5b0fc4
bd828262
3c0424cd
3c56da29
3a75f57b
3cedeefa
3cdc8943
3dca303a
3cb3df54
bd50bebf
3cd73d3d
3c5d83f3
bd63d9d2
3dac1791
3b1c6463
bc83048f
bdbbdac1
3ca40c5f
bd28c6a5
3d2a8d34
bd33cb0b
3c4bccf9
3d3cb8d7
3c98ff57
3ca388da
bc8a666c
3d8388ca
3aa97eed
3ce5fd7a
bcd9512a
3d71e0d5
bdaf30d7
bd1d26cd
bd258198
bc76d79d
3d55c5db
3dc52ea3
3dc952fc
bda926b1
3d430960
3c272e7e
3c77743e
39ac9400
3c8692c4
3d39f377
bda9fb3f
bd616a0f
bd99b2f5
3d594bdb
bba910cb
3dbea52c
3d958ce0
bab63eac
bd0478b3
3d579292
bcdbef64
3dabfbd2
bd406c78
3dc32051
3cf7c9a3
bda375a6
bda39031
3d91c717
3d9d23d8
bd9e460d
3d33357c
bcdd27dd
3b20a410
bd0399e5
bcb0994b
bdba415a
bd5f18f0
3d4efd93
bd4b8921
bc75d86f
3d17e948
3d8da476
3d9b189e
bba81b4f
bd7164b4
3daece14
3d135692
bd9b65ee
3da3b2cb
3caf5170
bc048bde
bd0b42ac
bdac6ba8
bc81b221
3cb5e802
bcb3c498
3d9db2b0
bd7461d9
3d322cf5
bd567aa1
3dc2ecf7
bd834da0
3c5afefd
bda76f8e
3d6b2f36
3d175197
3cac4c64
3d3242d3
3d9b0e5e
3dab0b50
3d29ea3c
bcfa7e0c
bd458887
bd5cacd2
bd182aac
bd2b53d9
3c3fa782
3d931574
bc6bf9f8
3db9590a
3d8d2b31
3ce92ec0
3bf1873c
bbc01ed8
3bba3664
3d54d30c
3d518dad
bd973759
bd77cd22
3d591828
3d09abac
bd327609
3c379d50
3d214144
3d848cda
bd3755b8
3b1b7e1b
bcfa8e07
bd8c90ed
3db7f033
3c415b87
3d8bcccd
bd67942a
bc1dac86
3d2215bb
3d7e593c
bcb7c420
3ceb8522
3d9c0522
bd94f625
3d413f81
3c346218
bd169d2e
3d8998c8
3cb98a69
3d2fcd39
3b8af1e7
3c370f3c
3d2d4713
3d63f220
3dc4d015
bc2c219e
3ce904f0
bdacd6d4
3c43b0ca
3d6176e8
3d83706b
3cd25aa6
3ce02d96
bda8764a
bdaea08c
bd571f12
3d48eb3a
3cbe3126
3ccd9899
3c309ce8
bd716430
bd890e6b
bd017329
bda8a0a1
3d1faee1
3d0a7db9
bd1a2785
bc8d5381
3d03a1e0
3caeba97
3d51d353
bd22ceb4
bd8bfc2b
3d7a5381
bcba115a
bb603950
3cceb8e1
3d340fc0
bd22c887
bd3ec2c8
3d9fce4a
bc913310
bcdf39b8
bb92ea45
3d427031
bd9eaae4
bc900485
bc26d653
3d02b2a2
3dbcf2fd
bd225932
3d4b81b2
3dc2e8f5
bd20c5f5
bdb7985a
bcec37ea
bbcb3d18
3d7f4bf6
3cbc3937
3c9c8f0d
bd8bfd20
3d225b24
3c83d136
bcad3d84
bdb74192
bd52eeb9
bc567feb
3cce0ca5
bd43f1c6
3dc78a7f
3cafd20c
bd2c6816
3d006aa4
3c9cabfc
3dcbc726
3d996bfe
3d98a8a6
3ceca0a7
bcf49dd0
bc63a80c
bd24a333
3d6fa6c7
bda92bc1
bd58c54b
3ceaa690
3d81f824
bd9861d2
3ca7e07c
3d3f994e
3d8ebbca
bc93fb38
bb367398
3be2470d
3d39b41f
3d005107
bda8fe4d
3da710cc
3d4d3b08
bd90c888
bd9465da
3d20e704
3c14f7c1
3cdeccb4
bd123e69
3dc5cd6c
bd697ae2
bdd15e67
bd65c483
3d67813c
3dbbf128
bd2f3317
3bae5872
3d24e622
3d8f98c2
3db3e4f5
3d2a6479
bc7ddd17
3d9a380b
bda78e62
bd921f4e
bd471ed0
3d7dddb2
3d083fd6
bd82c287
3db0be76
bd40e09e
3d224423
bda1fe28
bbaf2218
3d92688c
3c48abc3
bd4950d6
bc958cbd
3d9d96e7
3d0c6e5c
3d9ee53d
3d52c47d
bd32486f
bd9a4b6b
bc89f690
bd0f9ce2
bd6bad78
3c41f98c
bd9bf2bb
bd9c12e2
3b0e2218
bd83eb93
bd16e365
bd5e80ca
3cf1e9ff
3d493f0b
3c20da0d
bcbc696b
bd34d29b
3d84bb6b
bdc67022
bd0208c5
bd984937
bc052498
bd8b3ee8
bca06fac
3dbf91b0
3c99ec11
3d1642d7
bd2e6804
3bd190f9
bd8250ea
bc1787f3
3cc194f3
3d1dad78
bb0a36ea
3d044c27
3db3d3fc
bca23a07
3d8becbd
bc503031
bdb0d05a
3d57fc08
3d54e627
3caea0e0
3d5439e0
bcf2bf04
bdbde5e5
b9cf54d6
3c8d7bc9
3d660776
bcc14187
bdbc4713
3d3f42ef
3d2606e4
3d84db53
bd94c7a1
3c2aa30d
3d3f7a0f
3c3aec3d
3c58e024
bcfaee2c
bdb02835
3cd01d85
bd45bb16
3d05615e
bcc1ca26
3d1aeb92
bd7ca685
3ca6c9c2
3c64cef8
bcd98b05
bd174ea6
3d3f61bf
bd6e05d3
3cdd2107
3c3e1c80
bd835d8d
3db90d2e
bcbbdcd7
bdc71673
3d7679ae
bcea0aee
bd20674b
3c92e06a
3d85173f
3db4b7ad
3c467821
3d92ad7b
3d6d0382
3d5d2545
3d6dcc77
bd069f1b
bcd7f4b9
3da9b4b5
bd965bf3
3da67989
bdb186ba
bd16d033
3db6e293
3d286d18
3da875d4
3d21bfb2
3d91b55d
3b305300
3ce2b48b
3dc77102
bdc314d0
3dc4c727
bb1267ed
bc862792
bd472054
3d3585b9
bc98f55e
3d3d08b7
bdba4041
bd847a37
bb131bca
3c7b53f0
bdb05894
bd7a012d
3b524890
bd8d7a7d
3d9bdf09
bd907fa4
bdb912f0
3dbbdbb5
bca5ee3e
3ca6b93a
bdb60c15
3d7b3993
3d79f3b6
bda47f38
bd292275
bce26299
3ccc8351
bd7a716b
bdaa635e
3a930ee4
3dad12f6
bd529ff1
bc197188
bd4e1d08
3d5f7674
3a644a4e
bc7eb589
3d3b29d5
bd65c5d7
3d441009
bce4b244
bcac2845
bd30e615
bd6079f2
3c798bd4
3c4e130c
bd7561da
3dabec3c
3c1fe4cd
3c826707
3cb7ddec
bcc21969
3b04ec58
bd9269ec
3d270f78
3d4369ec
bc336c18
3cebf472
ba651d7c
bc946ba7
3caaf971
3da9f786
ba969000
3da308f6
bc6b7459
3c11756e
bd8c9812
babf14e5
bda69a56
3d3184bf
3d8cb55f
bcccb99a
3d9744cf
bd9f4ba3
3cf0c466
3dbfd521
3d4abf7e
bbe7fa71
3d6d57f7
bcf59a3e
bd8cc0b0
bdac4e7b
bdbd571d
3bccabe5
3d8c065f
3cd10e42
3d23aee9
bd8b1274
3cd9a602
3c8ad14a
3d406247
3daf2b9b
3ca48e1e
bccb8895
3d76757c
3dc40fe8
bd05f1de
3a6a0a8a
bbaf6085
3dc41585
3d05ae8b
bdb53ba5
bd110fe4
3d7b3d17
3c1cc0a4
bc3fa44c
bd1cfdb4
bd4cbecc
bb867995
bdb0e70d
ba98c642
bd294a96
3cd4d202
bd164410
bdbc0f88
3d575b26
3d8fe8d6
3daec340
bccb0b7b
bd4dee74
bd817ec3
bd642bc5
bdb4f52f
bca40d67
bbde0c37
bcf06b92
3d4b8f1c
3cffb4a3
bd5661d4
bd2f69a0
3d1ccfe3
3d86bb90
3d603025
3d0ed07b
3c797740
3dbcfed3
bdbecfd4
3ceb6080
bdb5676b
3d131264
3ce5f47e
3cec7901
3dc1e2de
bda0445e
bd2097f2
3d8fcf48
bd64b173
3d74eebd
bdc6d2e9
bdb885b6
bdb144ea
3c8fbd13
bc9ed2e5
3d83d389
bd261dd1
bd79eb22
3aafe02b
3c47ebfc
3d0d4779
3db5d4a4
bcf22670
bdc5711c
bdb11432
bc0a7bcc
bd7d7cd1
3c3f5b8e
3cf351f6
3d3708ca
3c1f9ad5
bda8f5bc
3c3c8dbb
bd6edf94
bd60eaaa
bc8fae9f
3bb3219d
bd3af94a
3da7a4c9
bc8128d7
bca57798
3c0de664
3d8c19cd
3cf45d68
bd0da9b8
3dd3c302
bd8342a4
3db8e7b6
bcb44819
3ca11c7d
bd74a5e7
bd26b095
3db02e71
bceec7b2
bda7bd3d
3d1b57e2
3da4d686
3d2a45f6
3d559745
3dab649c
3c33039f
3cd11270
3d663f08
3d024b1c
bd4be73f
bd9f9d22
bd595c1a
bd88d581
bcb9a267
bca00fef
bda7c0c4
3ced2ed9
3ccf82b8
bd814a7c
bcd125b9
3c9aac6f
bdab562a
3d0db5b7
bdaff809
bcbb4512
3c4c3b73
bcd3fceb
bcba3976
bcfee263
bb70d903
bdad29c8
3d6bf020
3d871549
3d32687b
3d23b9c7
bc95a8f3
bd5ae87c
3db31b06
bc4409d9
bd7ca9d0
bd1a3d5d
bda9d524
3da183d5
ba0c20a6
3dca47fe
bd78a4b2
bd5aac51
bcd0ab87
bd9d8259
bcff57c8
3d73ebd0
3da1230b
bd73347c
bce00cbf
3d9982ed
bccb75d5
3cb5d011
3c90adb4
3c200982
bd117424
bdb92dc7
bd072591
3d496472
bd161447
bd4eb144
bc929040
bd73d2f1
bbfc61d2
3d4e4057
3db6cd73
3d6c64d5
3d8fd44a
3da16848
3d36146f
3d1021e7
bdaba3bf
3c14aab9
bbc00bd5
3da735a6
bdaec898
3c82efb2
bda5419e
bcb40bdd
3d98f1a9
3c370188
3c95b578
3d64082b
bd77d1f8
bd04bb8f
bb7ec50c
bd261e47
3d5a9072
3db22cfd
3c1b45ec
bd155f77
bd3a18b3
3c3f847a
3d833f1f
bd8146ff
3d25303f
bdc35ab4
3daf6689
bcdc09c6
3dc06bcd
bd77f413
3dbc289d
bd4b8f45
bc9bb307
bd0da89e
bd8550c0
bd19bb81
3cd1e1ec
bd312de0
3ccb0718
3d996fcc
3c5b9244
bdbfb4c0
bd2aff4e
3cbc8f63
bd90ca2a
3d392dce
3db2b435
bd5569c1
3d20b981
3cd1b2ab
3dc05354
3d52026e
bd1af24a
bd866d9a
3d432663
bd697289
3d466bfe
bb228aff
bdba6ace
3d8b7408
bdb72a66
3d8d65c0
bd8ee399
3d4c6f4d
3d85214e
bc8f84c5
bd89c248
bd687e73
bd285a1e
bdb0db89
3dbb1984
bdba8d44
bd88d21a
ba4069cd
3d8a0f23
bd9c46a9
3cc0a15f
3d068c88
3ba87301
3cf67032
bbdf3f16
bc2c2484
bd0dbfa8
bcc3d118
3d6d5e44
3d01acb5
bad5b45f
bd6c36d9
bcf64feb
bb5dff98
bba8d534
bc20f638
bc4541c9
3d925faa
3d800b8b
3cd0f28c
3d4ed6b5
bd97073a
bc86333f
3d9e7881
3db442d1
3dbd95cf
3d8b3e82
3dbf7578
bd4be360
bcf8342c
bc78fe33
3d733dfd
3c682c7d
3d8bdbe1
bba2ef1c
bd90fe83
bd310cc4
bcb10cd0
3daec7ae
3cacb010
3d863e7c
bd523342
bc5c7a5d
3c6399c2
3c9645a4
3d5d8c03
bd5bfad5
3da911e8
bcab3ae3
3c2455b0
3ce0a756
bc71c19e
bd455de8
3dadeef3
3d5b3c52
3dbb680c
3d4a9dd5
3c25eaaa
3d702a60
3db64ad1
3dad88d7
3d400863
3d1c35c8
bd6cc187
bdc0302e
3c4eed8e
bcb92732
bce86982
3d4f59a0
3d99472d
3c0da7ac
3d9b3e9c
3c7d44d8
3bc872fd
3b1d93c3
3db759e7
3cb98116
3ced0aee
bd225951
3d4da76d
3d64ef34
bc904c90
bd254ddf
3db0bb5b
bc978f15
bc727d5c
3cb58aa2
bda3bdd7
3cc8ed32
3d28cc05
bd83be54
3d9f744a
bd9c7279
3da70d2e
bd67238e
3d88c230
bd224c26
3dc7439d
bd13ecb8
bcd57ad6
bc98d25b
3dc90145
3d0d8f2d
3d072969
bd922daa
bd012aac
bd2269e2
3c45ee34
bd838c49
bd3e07ec
bda5f86b
bd62d46e
bd225dee
bcd134e0
3da7a574
3da8b780
bda09740
3da2fc48
3d329646
3dc18182
bd48a4ae
3d84df25
3d3dd536
3931880a
3d93f904
3db42917
bd542f9a
3d8f69d4
bb21df9f
3daa13c1
bdc24c2a
bcc815a4
bbb81749
bc543d56
3b334e6f
3d82b32e
bd57dbf8
bd52052c
bdbbcb5d
bd44010d
3bfe0a8d
bc0cfd59
3d1245ab
bb5ec472
3c7896e2
bab138c9
3db95ebe
bd3278e6
bd93896c
bc289391
bd4be015
bb8ec8b3
3d67a377
3d58b3d0
3daf0a02
3dbf4b38
3dce8fc6
3d1d8c18
bd1f2f91
bb4730df
3ddb2934
bd9f9884
3da9def2
bd5ba302
bbeccec9
bcc60512
3be52c38
bd9831c5
3b2525a6
bd5f1b44
3cf0d99f
bda408d1
bb6a9dbf
bac4693b
bd9e2b4d
3d91f1d1
bda9e9ea
3d5c409c
bd8f9518
3bf24f44
bd91f51c
bc81c002
bce5f6fc
3d8118e6
bdb42357
bd202389
3db22eaa
bd626e02
3d205eaf
bc0ab9d9
3b573a2d
3cee08e3
bd6908d4
3d0cc2f0
3c7f1fd8
bd89566f
bd301f2b
bdaf7d5a
bd8199a4
3d8416d6
3d84060a
3d218694
bc1b8654
3d4896b9
bb0953e9
3d41410a
3dcd8814
3daed0ed
bd2911ab
bd4e46bf
3d832982
3d2f38c6
bd8d051d
bd05c798
3d8aed50
3a9c9dda
3d40682d
bd20e04d
3d5e4894
3d83458c
bc83b2f2
3d9ad094
3d21e8fa
bdc48c8e
bdc636ff
bda9c109
bcc786bb
bc7d3cf0
3dcac374
3d7f0ad9
bd81b545
3d93c8af
bc2d066a
bd0d3658
3d4ae3a1
3daf1050
bd816077
bad7c63c
bd40e782
bb53a581
3d2ab571
bd226529
3d08a98f
bd2022f7
3c96f62c
3ccd97f5
bc265d57
3d7a910f
3d8bf4ce
3dbe78e0
3c012cd1
3db11677
bc09219e
bdb93f84
3d17dcf0
3d4e7f28
3d07147b
bd47e85c
3d110daf
bd3772a5
3d32ccd2
bd3b6645
bcd5944c
3ccaf2c4
3d449824
3d2887ba
bc4ed6e9
3dbd906d
3cd03992
bcb63798
bd80a821
bd886c99
3da5c4ba
3d4e236d
bd52d642
ba138b3a
3d8a9bf3
3d9b36b4
3c09f14f
3d25dae8
bd91338e
bdc26f05
bdb04fcf
bcb5cc24
3c0d3982
3c8ed8dc
3d70714f
bd50843c
3d8c34e0
bd4dc15e
3da849d5
3dc20aad
3d3cd1f8
3c8e1c60
bd9c845d
bd0259b5
bccf3892
3d071933
bd91ad4f
bcbd1d04
3d9eb746
bdbcc4dd
bd871852
3d4d5030
3db0497c
3d743758
bcc3c740
bd5877c2
bb8c52f5
bd225c92
bd844163
3bb40511
3d8983e0
bd1a728e
bcbc8fa0
3ba36b8e
3c027599
3d07f77c
3cb74d0c
bdbeb447
bccad32c
3c9f48fc
3d76b386
3dc86877
bdac8361
3db42ab1
bd46ede0
3dbc9372
3d566bac
bd0a2c12
3cdc9720
bdab2aac
bdb31a35
3d7950ee
3ce8976f
3d9f615a
bdbde86e
bd31c544
bd7aab7b
bc7def65
3d0fbeca
bdc0b956
3d6add1e
3b75b5cb
bda9baad
bc65b31c
bcea6d88
3d869b13
3d8a3a5e
bda74f6f
3bd8e43f
bdc0ad92
bd070d45
3c688286
3db5c238
3b8ab2df
3c30490e
bcd11947
bd41b942
3d86ce49
bdb9cdaa
3d8f98fd
bd949b61
bd864694
3d02757b
bd33876b
bc2a9473
3d4cd1cc
3d5deba9
3d9671ce
bdb9dc9b
bd15c623
bcbb4149
bd83e948
bd8c511f
bc11ea4e
bc9e62ad
bbbe51d0
bd0cc3d6
bd21f143
3ceb7ffd
3d5d959e
bc268f3c
3bc18d84
bdb3d62f
3cf34ffb
3db71d5f
3cb8fcd1
3d830fb3
bcf7ed7f
3d745b6c
bd173cc3
bc4316e8
3d9f659b
3b242434
3d2e16ec
bd79d4e0
bca873ab
bcf5f53f
3c714332
bd96e873
bd0e02c1
3d36411f
bd5161ab
3da471ef
bc30ef1d
3c31cc5e
3d97701b
bd893a9c
3c368ca0
3d09b03c
bd928aeb
bc2ab601
3cd9c94c
3d4d6224
bb14dfb2
bd3e3069
3dc38eef
bd7d6f10
3d801b0f
3c98858a
bdae64ce
bd03471e
3d51b801
3daf6af5
3ceed0a0
3d9b628f
bcca8e54
bdb93476
3d326d2d
3d9ce8a0
bd957adb
bd58b3d5
bdbc9cfb
3dbe1c63
bda32ff2
3da7aecb
3d9dbc6f
bd6ee938
3c93838a
3cfdd66b
3cd83628
3d262140
bd06a12a
3caff1d2
3d842d93
bd73aabf
3ce12fca
3c8c6e01
3d847a63
3d1e2f92
bdbb36c9
bd1cf2e7
bd402eec
bd39d034
3bea5160
3db94f0c
bd0f3f8d
bd689dd0
3da61408
3c96ee94
3da1528a
3b929b59
3db47d93
3c9f4739
3d5238c5
3d9d3b3b
3d348125
bdc04ccd
3d7388a4
3b8e95aa
bd122a56
3c3cd60f
bda2e80c
bcfdfb50
bcf915ee
bd01de41
bd2426f6
bd27c8e6
3b3d4d6f
bdc3d4a8
bd46376b
3c46b63e
3d9027cc
3dbeefbc
bc7c0380
3c14f68d
bae24132
bc5472dc
bc8c0e87
3da50d5e
3da12e50
3c80bd3e
3d66051b
bd653104
bba11e90
bca390ea
3d140a40
bd83ca2a
3db27557
bbedea22
3d812c2e
3b5b7911
bd39fb43
3d8a5ec6
3dc088a4
3c245ee1
3dad8630
bc832184
3d0dccb2
3cafb106
3d844bee
3d30429a
3d710be8
bd83e11d
bd586ffa
3da822f3
bd644c23
3d8e5d89
3d00aff4
3cbccc44
3dbe7712
bd5e9ba7
bd435334
3d9ab7c1
3dc46378
bd174717
3c84dd85
bd21dfc4
bd0b0f25
3dba3258
3d24488a
bd5c2384
3dc450e5
bd83b743
3d047615
3d8b24d8
3d2df725
bce861c0
3d11497b
bcd3203e
bdaf2a4c
bd7aa700
bd86893d
bc00ed63
bdaf2e51
3db4208c
bd414f4f
bd94dc3c
3db0df5a
bd1e085f
3d2fdc48
3d89d766
bda1ff15
3d43a4d9
bce0a16e
3d3b8ba9
bd79685f
3cebb74e
3da0bc6f
bb5b83b4
3d9f3fd2
3d4a355c
3d1eec63
3a133b2d
3d976abf
bd596ac7
bb2eb473
3d53825c
3d99258f
bdaf56a9
3cca53bf
3d4d0a64
3dc72075
bd60fa67
3bfc5057
3d06c7c1
bda5d828
bd2ea5af
3cc11308
3db50d03
3db871f1
3dab05d8
3d731468
3d405ddc
bd49ba43
3d5fd1b5
bc418b75
bc2d73d8
3d88cb8a
baefcfc9
bce01fa2
bd09e8ba
3d91858c
bbe691b2
bdb5c114
bd83bcbe
3dbbcbb1
bcc1f999
3d7c2d8b
3d751b1b
bd3048a9
3db6cf9c
3d9c160a
3d1d9b4d
3d0e7fbc
3d8099f0
3d0f05c8
bd9a5a10
3dc3db88
3d744a35
bda75186
bd019feb
bda38941
bca0e7cd
3d4901b1
3d373111
3cd5d16c
3cea9045
3daf9560
3d12c24a
bd17168a
bcaa5492
3dba0680
3db247f2
bce40fec
3dbb6500
3d8d40d0
bc9cf3a7
3dab030f
bca0e7d5
bd9531d8
bcc09c92
3c84f9ab
3d0dd3bf
3b7c3986
bd48aecb
bd72297b
3ad3b45b
bd72d663
bd9d696e
3daf305b
3d811441
3dc21a75
bca1728f
3d9441e8
bd06865b
bd670c09
bdb15018
3d4dcb2c
bd8045cb
3dabc48f
3d5f0ea1
bc5378dc
bd960c3f
3ca98471
bdae4a56
3cb63dd5
bd78ab11
bd894d76
bb1a181d
bd1c0c2d
3cf1bc41
3cab3b68
bd87f4ac
3dbb91d5
bd8b56aa
bd662a25
bceb3f18
bdbedfd3
3d574678
3db697a4
bd800214
bca1b54d
bd86cbbe
bd2babd2
bc66f59d
bd2537b3
3ce8034d
3ce7ae03
3dbb5964
bc90b810
3c30bdce
bcbb5a0d
bd635cbc
3d79177d
3daa6bdd
bcf15c0e
bbb6e59f
3d504a58
bd40968b
bceaac37
3cad1350
bd87a384
3c6a3f6d
3d7dc3e7
bd866b96
3cdfdac4
bda0faf3
bd87d0ce
3d9196d3
bc8ce4fe
bd7bd591
3d9960fe
3a8a140d
bd3d5f58
3b87c5c6
3d2c989c
3d801a27
bd9a0871
3dac82f0
bd65e6f8
3d8d7c3c
3dacd3fd
bcc06736
bdb4d0f1
3cc9385d
bdbb0217
bab51caa
bdb3bd58
3c790579
3cee6923
3c280302
bd810a02
3db6173a
bd3655e0
bdba1bd7
3a027019
3daa2ded
bd675dd2
3d714bb0
bda70b82
bda15821
3ceb6e98
3cc3b7da
bcfb40d6
3bcc37d5
bd89ca19
3dbc84e3
bd76909f
bd19bab6
bcaf94d1
bdbc3c84
3d70d49c
3bc537a2
bd69bb78
bd3c8e66
bdc346de
bc8e58d1
3d894284
bcd5b37f
3c41a67c
3cae3f74
3d91cd1e
bc23e2bb
bc148d97
bd81e18f
bd72915d
3c27bcef
bce40cc4
3c4c603e
bd2a67c3
3d7f3d77
3daaa11e
bdb02be0
bc6862c6
bd99d84a
3c08a8dd
bdb5a1eb
bdb50902
3d5d80ef
bd4cb506
3dc1ce67
3db28ccb
3d44bf92
bd3d653a
bc097870
bdab908c
3d77781d
3d7ca87a
3d78676f
bd973ce6
bcb9f2c8
bd4c7bf9
bd98c149
bdaccf2a
bcdfb502
bc7362ad
3daae521
bd511c04
3c7e2742
bcccff6c
3db3717b
bd82c624
3d7f1fd0
3cead07d
3db7c17c
bd27e216
3d72aa6d
bd91e15e
3db6778c
bdc910c0
3dc6cf65
3dae8a55
bc620088
3c8c7a5f
3c679a6c
bc17efc4
3d9b0415
bb864f98
3da1a747
3c0f9211
bd8c7535
3dd0a6aa
bd42877d
3dc9fb01
bd1ac0a3
3d9a9b8a
bd11fa0c
3c4b57d8
3d732dd3
3dc2ff14
badb2681
3d024e03
bd465939
3a68413a
3d321851
3d95048b
3d37bbbf
3d61a1aa
3b225767
bbdb4c6f
3d8dc985
bcb52921
3cfe52a0
bbdbf4f2
bd82a510
3b14083b
3daa3bb4
3a8527c0
bcb36320
bdae4af6
3c2c4540
3c56e7a8
bdaca859
bd9e74ae
bd52a154
bd9ccbf0
bd6f0898
bc366a70
bd8d7f55
3d0cc429
bd8c5019
bcfa28b3
3cc5a4f8
bd62cc36
bd7190b0
bd11870d
bc283168
3d0abc3e
bd705de1
bc94ceac
3c923611
3c1de4ed
bc444542
3d607c81
bd2b2e38
bda0f574
3d022c46
3cc75d96
3cb46100
3d9c7cf7
3c4568d5
bd977b99
3d2d06f4
bd8d5cb8
3d9a0aa9
3cceb6ef
bd7eed8f
3dc3843e
bdad8f0d
3d4b0968
bcb1eb19
bdaee41f
bc47f079
3da371d1
3db98df9
3cf78a66
bcf77e0f
3c294fd6
bc83cf30
3d197c55
bd7947cf
3db74a32
3dbd9df3
3dc4bc8c
3d333dfd
3daa492a
bdb6dc03
3d9eb40f
3d5afc8a
3dabb0ba
3b880c03
3d0c7f10
3c904aec
bd748989
3d8bb653
bda3f41c
bb821355
3dc5a8ab
bba2440c
bdbf70ba
bd86833c
bd47c608
3d82a58b
3d153f9e
bccdf7bd
bd6abbf4
bd69f080
bc9e46fa
bd2af2e3
bd88817c
3d774820
bd5a1e58
bdb1e7e2
bc765420
bdb97b6a
3d0d34b3
bd4438aa
3d9fba11
3d8cda03
3d536066
3db38faa
bb9fb8bb
3d5a80db
3dc138b1
bda61d8d
bd2d4c32
3d74cc19
3d134ac8
3d974a98
bc4994d6
bdb7cab0
3c8d584c
3d801765
3a154180
bc72397a
bc8d3401
bc77fba4
bda0569f
3d8998e4
3d0e945d
bc50eb3c
3d06b5c3
bdb7a6e9
3db64991
3d3eb039
3c09ae09
3d058f1d
bcf82c0d
3b8bd364
bd61bb49
3da14112
3ca11fa1
bd3873f3
bd78563c
bd1402a3
3d97c0dc
3d3a9f38
3c6daa12
3dc0b849
3d7fef2c
bc5710df
3c9d16b6
3d4be2bd
bd9a7baf
bca400b4
3ccf092f
bd5604fe
3dc4ccf4
bd383be3
bd12a256
3d9fd2ac
bdafe90e
3db80588
3c6f7b4b
3cc7f180
bd8cb606
3dbad9f1
3dbbdb40
bd46763f
3bf15560
3c1696b3
bd15e44c
3dc71142
bc447f83
bd4cb50a
bdbfaeff
bd79006d
bd1bb980
3d9c40e9
bda9463a
bd178fa2
bdc81de8
bd9b30f3
bd9cb630
bd46304e
3d9d5670
bcc948e5
bd8290f0
3d908800
bd965cd1
bc5c7849
bdc11e3f
3ca18577
bd9bdbd2
bd4b2883
3cff99ba
3d2ecefa
bc6d605a
bd478f36
3d803485
bdad5e56
3d972b4e
3d8b7183
bd8140e6
3d0c0ac4
3dae7dfb
3d43e7c4
bce934e6
bbeaa3d6
3d8c25a0
bd380945
bd1396c7
bc9a506f
bd282a38
bb9e3806
bda36456
bd00697a
bd7128c3
bdb6a372
bd8024a9
bd1a7a67
3dc4024f
bae22b57
3d6da504
3db7ba6e
bd95fe77
bd8f9776
bd6b0648
3d78000c
bda3fc22
bcd81e37
3ce8d540
3dc68e24
3c65167e
bc8f25c4
bd25c59a
bd2b1799
3b804aac
3d6ef87a
3d80afc6
bd8b5be5
3dc2b469
3b568d28
bd9c7541
b9e4a7e4
3d31132c
3d72a3bb
3d358030
3cb7bb27
3b8f4d5d
3db10fad
bd9743f4
bd9b6ea9
3cf02c52
3cd89a86
3d3cabee
3c738d3c
3c9bded5
bb3fcfe9
bda9940c
3bad604b
3cd1431f
bd4b189c
3d7ed305
3c96a613
bbb66305
3bb10197
bdad0a63
3d832309
bd8dcc3a
bd0dfa61
3b19ce7b
3da66e92
3d015974
bc2daa78
3ceada04
bdb290de
bda7644d
bbcd3091
bdbace99
3d430c45
3dbb95e8
bd88379c
3d317764
bd2a3edc
bd52f4a4
bd8e6cf2
3b75ed3f
3c740861
3d526071
3cf7e122
ba89193d
3d6d86b0
bd2867c1
bca97c4e
bd6f0bbb
3d67b315
3d947144
bd4d56bb
3b8a6143
bc51acf2
bdb23a31
3c9cbb53
bd9d8d6d
3d7c8d7c
bd11f37f
3ccf1216
bcbb1917
3db7e6f8
3db4f975
3c634094
bd51bbb4
bd5de279
bda78b41
bd6ae144
3d4ca50c
3d18a4f9
3d9127f4
3dc202ca
bd770ac1
3b521319
3d82ee6e
3dcc9170
bd8b36f9
3d352e68
bd7e1d82
3b926e09
bcfcf2b4
3d88b54b
3d974ba7
3d29df14
3dc0dd34
bd1b49cb
bd4e1bbd
bd224dab
bd76e6d5
3d95be0d
bd9f839a
bcc15a14
bdb79f72
bd72a43f
bd7a7d86
bd5af93e
bd116d7c
3cb09ece
bcbd8093
bd896305
3d23b1fa
bd9f56d8
3db38021
3d43967c
bd4fd5e9
3d850c44
bcf9b21e
3cac31fc
3db32f08
bd9c8a1c
3db127b4
bd1524a9
bc9e87ec
3d7f5297
bcc9a935
bd93805a
3d51a3e7
bca04f36
bcdc0e12
3d94574d
bcbb17cb
bd524bf3
3cc5afb6
bd0ce27a
bd93295e
bd9346a5
bda31e55
3dc870e1
3c0c6b9a
bcb2b6ef
3c7e0e4c
b99dc48b
3cb93124
3ce57f6a
bd53b069
bc03122e
3d250d74
bdc6ae38
bbee814a
bd898227
3cd9857d
bd5cdf0b
bdb4c9a0
bdb42f7e
3d873410
bd230ed8
bd40371f
bd245d48
bd9e94d0
3cc42d63
bd56cbf9
3cfa4bf8
bccdaa1f
bc6046f2
3d47c6ac
bd27c548
3d7fd09a
3ac86b16
3d16c7ea
3cbd5f09
3d7dc2d5
bdb50d5b
3d16cd6c
bc789cba
3d22894a
bd61b935
baa493b6
3d57c611
3d8a99d7
3d6aad18
3d8111e7
3d98a3af
bc822f4f
bdb4a3a1
3d979915
bc633bdc
bbb6e160
bd597fe5
3ce12999
ba244e1e
3c2409b8
bc0d0d7c
3d1b8e2c
3d35fa93
3cea0571
3da80a40
3c53086b
3d5d14b4
bdbbd916
3daffc5d
bd398745
3d3bcc9a
bd90a4f3
3dc20c42
3d39e847
bd775823
bdab1956
3d8c6aad
3db9845d
3d077990
3d1d71e0
3d1ac921
bccadeca
bd543b49
bd36c55a
3b9e97cb
bd330d6d
3c2202d7
bcf2b999
3d33a143
3dbbe1d8
bd87f7ca
bd8e0eff
3d8a0ca7
3d618849
bd579f64
3cb9f002
3d67053a
3d0e6a6c
3c389fa8
bd74f8de
3c80bce9
3cceacb8
3d3b75c5
3d8b060c
3db9e1f9
3d9bcd84
3b2d2e67
3d88739d
bc9d35e7
bdb0c05c
3d242d39
3d6a66e4
3dbf2221
bcc3b4c7
bd53f7ac
3d130c7a
3c9a669c
3cb4d8fc
bce022f8
3c018848
bdbf19f7
3ccbb96a
3dadd15a
3da0c703
3da08db3
3d12ab26
bc4d7e16
3d6f5a79
3da56308
bd0d3691
bc959be3
bd5e74c1
bb790ae3
bd46482f
bc966612
bd8b0bc5
3d3ea57b
bd96b386
3d44677a
3b88b7c0
3d905fce
3d6ef4c1
bc6a5379
bd051d0a
3d152a77
3ba8c3e1
bda95549
3db035bc
3c80f2c3
bda19ca7
3c8068f8
3dc22d77
bd2ae53c
3c098384
bc6c7895
3d254dea
bab43fac
3d8803b4
3c8eabe0
3d850f8c
3d652503
bd7a1496
3be9af40
bd5f956a
bb9e6c32
bd5f164b
bc827679
bc49da4b
3d994112
3cf4a247
3d8beefc
bd8469b6
3a87bb2a
bd110162
bb637d1c
3d7a9bc6
bcba4dc4
bdc1e02d
3c329e0c
3dadf037
3d7fe140
3d94d731
bd825dca
3c693940
3bf563b5
3d9f6cf6
3cfc3b12
3d02bcf3
3dc561ce
bcf0a0bd
bcb4d94c
bd3d1248
bd98afe8
3dbd3ca2
bc29c370
3c63ddc4
3d598918
bd3a8676
3bf905e7
bd4bc34c
3d27eda8
3d826e5c
3d073034
3d88ae78
bcc8d272
bdab1c61
bd866690
bdaeb73a
bd9eacbc
bd7710dc
bdb6ac2c
3d84597b
bda0a84d
bcad25ad
bd7e44b3
bd8082d2
3bc5a305
3d5a25c2
3c535bb8
3d95bd1a
bd84de59
bd898adc
3d2055d9
bd91b45e
bd2306ea
bda3d92c
bcaf49d8
bd6a4618
bd4c8010
3db7c943
bd0716c5
bdae43f4
bca3a334
bca4055a
3d9fa81f
3c3396bb
3da9e6fc
3da4cc06
bb25cc7e
3d93339e
3b0e92e5
3b277d48
3d5c1c2a
bda0025c
bd4c5e0d
3d90b8f1
bc920aa7
3d7c3ccc
bc2579e8
bd7d6876
bd3d83ec
bdb7fc74
bdbba2f4
bc60c719
bc1aa372
b9de8093
3cc05d6c
bd53f9de
3d8d4098
bc6155f3
bd9cd104
bdbefd09
bc4aeeb5
3d94c141
3d64d6ad
3d8e79fb
3c984fda
3c234240
3cf520dc
3db0ad2a
bd4479b8
3dbaa5e9
bdb7dbf2
3d8a0e7f
bd72895d
3d0d9ba5
bd99f61d
3d67b9d6
3ced0a22
3dccb204
3da8d088
3da069dc
3a175a12
3cca926a
3d18b3aa
bd3f2e43
3d5b56f7
bd0eb979
3d98d4e7
bc1d1480
bd11c3db
3dbbaf4a
bdc1c522
3ce1b7fc
bd09b317
3dc38f64
bd80e529
bd724a51
bcdaa5ea
3d319b1c
bca459cf
bdb50239
3d3137a1
bd470280
3dbea6a9
3dc653a0
3d2e9911
3d3c2360
bd7ea6c9
3d4a9bd1
3da1830a
3dc619d6
3c80870b
bdba4e9c
3db1dc3b
bcb0c745
3d10edb0
3d4382e5
bdb112fa
bc673c2b
bd725804
bcf1d944
bd0ebeeb
bd95680c
bd98ce52
3d3be99d
3d315ef7
3dac2720
bd918440
3c62b31b
bdc322d9
3c85bec4
3d48e0ee
3d816ae6
3d83837e
3b92c4dc
3d8c3769
3d87df59
bc53b72c
bda0528e
bc21a2de
3da29792
bd76a34b
bd1e12b1
bd9e5baf
bda83c31
bdc64680
39cdf123
bd6d9d3f
3d500926
3b0b3efe
3db437d0
bcd36f46
3ce55a7c
3d087ad8
3bccf8ea
bd9ef1c8
b90709bc
bd62a108
bd561110
3d40b8f7
bccea372
3d9f4fd2
bdbf92f8
3a458396
3db53ea5
bdb67ecf
3c4c8372
bc361697
3d11be3d
bcbe0770
bd8da85a
bd831f98
bd2dc8bd
bd31ed02
bd4aece2
bda15895
3d941238
3d316ec5
bdae4822
3dc37223
bcc33bb6
3ceaeb8d
bd9c027d
3cd76ffe
3db7d5e6
bd259d27
3d28b85b
bd5a799b
3d9d7643
bc7adaa8
3db29720
bc9ee15c
3d8c4809
3d2b4ae2
3d66e5d0
3ba09366
3d473f09
3d1e9e74
3c35d764
bdb544ef
bd48c385
3dbd359b
bd827b17
bda32d19
bda2944b
bcbaed75
bcc46eac
bda09fc3
3d11c18b
bcbdc07f
3daf4c08
bd312030
bcd57c76
bc545346
bab61728
bdb74dd8
bdbcb5e4
3d00e5fc
3d93e1a0
bd24c12e
bca3d7a5
3d4239f1
bd2dcb1b
bd615316
3d57eedb
3d8e9705
bcecfda9
bd8c78c7
bd5e3741
bd4a8daf
bc471feb
3db1edfe
3dd893a1
bd9f7cc4
bd60915a
3da2a4cc
bc9b40f4
3dca294a
3d030d94
bda438b5
3c2bc5b7
3dcb1a27
bd294551
3d178760
3ce3ff8a
3dc5f4cb
bad5eeac
bba8cf7f
bbe93d8d
bd8717e1
bcbda51d
bc5fb26a
3d1b31d0
bd9d0087
bd400795
3d8dc919
bcd5a88d
bd8ef360
3cf0aad8
3cef11ef
3d1300fc
bbccbcc5
bb33da22
3d11cbb6
3ab86315
3d71974d
3ccfd22e
3da9de2b
3c9e90c5
bcbcd034
bd1bee06
3db58e70
3cc0c658
3db3b319
3c95ab17
3ca4b43f
3dad632a
3c6e8cfa
bd749a0d
bd1a0583
bdaa20b4
bd9e8bbe
bda9130a
3d7ee862
3d6d75ab
bc85d6ec
bbf59f85
bd1ae01d
bd1cfa7f
3c58fd0b
bcbfb74f
3daaa149
bb654c19
3db8ba47
3c1ec0dc
3c4d1eb6
3d969f67
3d82df70
bc30e3ca
bdb6004e
3da787cd
3d2252e0
bc1fb5f0
3cbd2812
bdbc9c90
bd9763ed
3da7f81a
bcb4686c
3d87066b
3daa79fc
bcaf1cae
