3bc0f9f4
b93eef22
3b00a2b8
bad67200
00000000
b9081dc6
b8c29c4e
3a8dd181
b75474f0
3a2d40e1
3ae0caa9
3a0788e8
ba330fcd
3b174bdf
baeb31e3
bbac874f
3b48c394
bacb0239
3b0263bd
3ae18104
3ac75944
3b30a06e
3b92634e
b985de05
bad821e4
ba439624
b9c2eb20
bb002d21
00000000
3b6ab836
b981ea55
00000000
3aa12dac
3c24f51a
3ad30f5a
bb977281
39b83856
3b0591c1
3aded1ed
3b51176a
bad99934
3ae6443d
baab3d58
3b7e4be4
bae67b3f
badcd3e3
3ad4459e
00000000
3761cfe2
3bae10c6
3ab429e0
3b17dc3a
bae0866c
ba1ad438
38095448
3b01ecb9
bb886209
3b2165d5
bba2bb30
3abd4efe
00000000
3b081bf0
ba511cfb
3829c3a8
