3b7682c5
3b8379de
3b158e47
3b27fd1f
00000000
3b0209a4
3b7a4d1f
00000000
ba800a55
3b200096
3ab66e55
b987510e
3ac7b580
3b33f29f
3b2a8f90
ba44690b
399d0ddf
3964e7a0
3b2d2168
3b18f79d
3b9eaa0a
bac2c0a7
b9d81b61
3aad6c3e
3b378081
3acebeff
3b2347e9
00000000
b9908aa8
b9adfcc4
baa29cf9
3b288aea
3aa9b2ed
3aca4b5f
b936458b
b9b5f820
b75b2925
3a2ed8ee
ba537172
3a971a0a
3b51db3d
3b322abc
b9904790
3997a8e8
3ab34080
b90c977b
3a5aad2d
b9d84a99
3b48c225
00000000
00000000
ba8ba101
3b8a4812
3aa2e70a
3b36e450
b9d02b21
3ae3764b
3ab71d01
3abe3daf
baf06791
3b3690c1
3bd1dc4c
3b1b229d
3b260712
