3b0bb49f
bb0a8c57
3b8c750e
ba05396b
3b75ea4d
3a2efc4e
3a67fa3c
3b9feb57
3b69e6fd
3b80767a
3a663543
39e204a0
3bb8f761
3a958862
39f9e60e
b9b4f97a
ba3aa6a4
bb0476f7
3a6bb2b0
ba71a3d7
3b473644
baede89c
3b28adaa
3b96bd96
bb30c80a
3b784539
bb5526f4
bb515d74
ba22430c
3a064595
bae4d482
3b0a2a3d
38ec4139
3c0389f9
bab488a8
3b58cc55
3b869f77
bb493ed6
3906cdac
3bbf1756
3bce85a5
3b7c768e
3b08ccb9
3ac06dea
bb321d7c
bb0af71f
3ac6dd43
b98c4f99
3b03e232
bb3715fe
ba1ffb1e
3ba7d028
3bc17b6c
3ba860d5
3bd480b7
b981742e
3a21af08
b8df353d
bb794918
bad870df
3b668f97
3ba3e289
bb6cd3dc
3b00e44f
