3a4e25d4
39cf53b3
3b866534
39e9947c
bae8542c
3a9941ab
b9bd11bd
3ac962ce
ba39646e
3b2374bc
3b69f554
3b8a59ce
3bb937fd
3b80a8f9
3b41d38a
bb0ae22c
3b026f34
3b206de6
3b4b7f95
3957887e
b83b13f9
ba02a83f
3b8392bd
3b906abc
3b2e2150
3bbf17af
3a8715ad
bb10f106
baf1ecc9
3b928caa
3b7f032f
3b7b02cb
3a2b800a
3ba25a29
3b114b8e
3b9eb501
3b4b71bf
3aa4d05e
3ae0d527
3a0cd56e
ba9fd7d8
3a13c684
3b7a3aef
3b2c2931
b8f95a9a
3adf24d8
3b975c5a
3b818df0
3afe4057
3ab0c23d
3b782cee
3b9143d1
3bd475d3
bb15479f
b9c1ae86
bab06a0b
bb4e4c4b
bb1fbf8e
3bff3c75
3a5d58a1
3b7fe197
ba6a7c6f
bac27755
bb021c50
