3a29979d
3b7e4f33
3ba64835
3b50385c
3b3865dc
ba3399e6
b8f782c8
bb0a8ce4
baccd655
3af8208c
ba2d3637
3b03956c
3b0db387
3ba85379
3abf70b3
3aeb1954
3b4d7457
3b573602
3bb6ea9e
3b16ac60
ba9ab243
bb4711cf
3b97edaa
39976ed7
3a151afb
3b879d4e
bace3cbc
3b9aaab9
3aba83da
3bcd010a
3a5d07dd
3c10e70f
