3b87bf4d
baa73d2b
3a99bf97
bb1adf47
3b219eb4
39d67a5d
37979d3b
ba8ca5a0
3b1d0f9a
3af20ac1
3906ed6d
3aa1a47c
3b8500af
ba9c8f22
3b214727
3ae6ddee
baba239b
ba155350
3a41f7b3
ba905df6
bb157a3b
3b3962ff
3adf476b
b809189e
b9beb439
3b06c0da
3b264507
3aefc580
ba1d14fb
3a0e9062
bb319181
ba00155a
3ad94848
ba9b308c
3b222369
3b59718a
3b40813a
3b16f135
ba2e0cfb
b8f4b3fd
39eba65f
39d06f1f
3a87dca8
bae7fbcb
ba353f6d
3af8dc8a
3b31814e
3b4d9352
3aea0ff7
3b81beb4
3b5eff73
3b676f84
ba58a217
3b881533
399621f5
39df51bb
3b0b1645
ba18669e
3b67bccc
b8e47739
3ae1958a
b890d03b
3ae9483f
3b0ebfac
