3b049e6b
b9ff6001
ba146ffd
3b4650fe
3b048cce
3b4deadd
ba837f59
3bb2d91f
3bd69642
b955c205
3a2c444c
3b678db9
ba3dc062
3b3f77d5
bb484043
bae6f6ef
bab029d9
3b2cb3ea
baa3610d
bb0caa3a
3b760dca
3b631c06
3b4dcccd
3b2a260c
bad6ca5e
bac6824f
3b44f497
3b130470
3ab55080
bac088a0
bb0bb673
3b0b8fbc
baca256e
39c6035e
3aa2cb18
3b175014
3b198788
ba79e06f
3a2d45e7
bb20f004
3b4ed720
3ae57108
3a884582
3a0f9725
3b0fefc8
3b6179ea
3aa0f91f
3b52841d
b8b62ffc
3b72b584
3ba8d668
ba6c09ba
3b302af5
39400335
3b2d182d
3b486f66
3b5d6a2a
ba7b0d81
3aed8dd6
3b0deb77
baeaf797
b9ef664e
3b32e2ac
3b1bbc37
