3ace3fce
b9d6ff53
3bcc42e4
3c064470
3b338fca
39534c21
baf65dec
ba54d880
3c3ef028
3b0fdb16
3ba55665
3b8dea7c
3b891fd2
3b4af460
3bc37e31
3b06cb3f
39ac8147
3b729734
bac304b5
3a8d7fc7
bb0cb625
3c0b5952
3a95dd43
3b7fdb8d
3b679afe
3a4c2da7
3b8745eb
3b95a2e3
bb1c35bd
3a0d3d6b
bae8750b
3b946b5e
