3a09f9a7
3b679981
3b08ad6e
3b97c50d
3b1c43e4
3b41e79e
3b006cfb
b9eb2f04
3b424da9
ba7298e0
ba8b9741
baee4280
ba8bc1a5
3a9b2a31
3b6d47c7
39e1ba62
3b1f4e64
3b739aba
3b11bd40
379aff7a
398cffd5
39dd00a2
3ac97587
39b76867
3b52b666
3b37634a
bb271577
bab7601a
ba8aaa19
ba4fe812
3b0bcc87
3ba3d4e9
bac52da7
3b2b5b20
3b0d122f
3b36258b
3b9ac217
baa8161f
3af60707
3bb5294b
3a0bce1a
3aa7c630
3a2c859d
3b4548f2
bb14fabe
b8f47f80
3b417c76
393b2df3
3b2233ae
3b41183d
3a60817c
3b4515d9
b91a2349
3b0c045e
3a02f2c9
3b5abe28
3ada177c
ba2dac1c
3b2a7a4f
bb0ae24d
3b86bc0d
3ae367b6
3b309428
3b3e31d5
