3b4ff6bf
3bb77855
bab34b5d
bb105098
bb848266
3ab4dc13
3bc3c2de
b8ebd8d7
3b422af3
392ef9c3
3c0ff9d1
3bc38f0c
3ba75f1e
bb6b602c
bb138190
3bb47409
bb8e91a9
3c03a947
baac821f
3b6b8f5d
ba63aa3d
3c05b921
3aa5270d
3b838aaf
3ba84cc0
3bf55af4
b91ed217
3b15b857
3b904b0f
bafab449
bae0d3bc
3ab7d629
