ba93220b
38fae771
bb2c5b08
bad53259
3ac1bb29
3b513205
3b3dd81a
3b6ded18
3b2e1237
3ba091a2
39888627
ba71f3a6
3abb1ce8
3b0201a0
3a66cc55
3986ec81
3aaa2ff7
3b98ebc9
b905c859
3ab59fd2
3b7dbacc
ba679935
ba74a6bf
3b90df68
3b3d3990
3ad6a54e
b6a2366e
3a4fd9c2
3b6e8041
3b6944b0
3b289656
bb0eef16
3b1d00fa
3b9145ee
b998f5f8
bb0f3c12
ba9995ca
bac46186
3b181ebf
b980e6d0
3b673980
ba88eed6
3b1e8663
ba4a764a
3b8bfc87
3b766b18
3b82947b
baf938fa
ba696de4
b9fd5b13
3b7e5631
ba8a998d
3b898f3b
3b8b81e7
ba97a471
b9360f89
baf057af
3b49f56c
b9905753
ba81b21b
3b7b6e2a
b8119ce5
3b4dbaaf
3b4ec761
